#version: 0.2
t h
e a
a i
c h
i n
th e</w>
t i
a n
o n
a r
o m
a n</w>
o n</w>
o r
r e
i s
e n
t a
i n</w>
o f</w>
i r
l e</w>
a l
a g
n a</w>
a c
e r
r o
b h
a r</w>
e i
d h</w>
a l</w>
t e
om h
u s</w>
t o</w>
i t
an d</w>
r a
in g</w>
ag us</w>
d e
ti on</w>
u n
l a
e s</w>
i m
t ea
í o
á i
t a</w>
a m
s h
o r</w>
i c
i s</w>
s t
ai r
s e
ac h</w>
u r
s i
ch u
i r</w>
r i
e r</w>
d h
e c
t e</w>
ai n
p ro
l i
e d</w>
a s</w>
e m
m h
ti c
ea ch
ti on
al l</w>
ea r
i ú
g h
en t</w>
a ch
i l</w>
ea n
o l
a d
c h</w>
s u
t r
ir tea
C h
ío ch
c on
d e</w>
s c
g c
A r
T h
sh all</w>
C o
g al</w>
t s</w>
g h</w>
e s
A irtea
p l
i l
ai s</w>
c o
om m
Ar tic
a t
Airtea gal</w>
r ea
Artic le</w>
g o</w>
ai dh</w>
i d
f h
a tion</w>
f or</w>
o s
l ei
a o
f or
b e</w>
f i
s p
a d</w>
i on
v e</w>
o p
u l
n i
te d</w>
a t</w>
c e</w>
a s
al l
u ro
b y</w>
d i
Th e</w>
l ea
a g</w>
ái l</w>
in n
p h
C omm
uro p
2 0
c u
tion s</w>
n ó</w>
it y</w>
s in</w>
E urop
r é
E or
ea n</w>
a p
w h
á ir
e l
é an
ta í</w>
it h</w>
ai gh</w>
Eor p
n o
em b
d u
lei s</w>
o c
chu n</w>
Europ ean</w>
o b
p ar
is iú
ai the</w>
ai r</w>
e n</w>
la ch
c omh
á n</w>
bh f
se o</w>
e x
t u
t h</w>
m b
o i
w ith</w>
S ta
o u
th a</w>
á in</w>
si on</w>
d o
m a
f aidh</w>
q u
r u
i th
l e
emb er</w>
ei dh
d o</w>
t er
a dh</w>
s e</w>
omh air
a b
g n
tea r</w>
l u
g ra
ai l</w>
a íoch
i d</w>
t ing</w>
g u
no t</w>
A on
un c
all st
M ember</w>
f ar</w>
te s</w>
i the</w>
f ao
m ent</w>
m ai
l ai
at á</w>
th at</w>
l a</w>
U ni
i al
omhair le</w>
l y</w>
an n</w>
í omh
te r</w>
n e
é ad
s a</w>
ur e</w>
t ais</w>
m in
ei dh</w>
s ti
í on
re s
am e</w>
de n</w>
a í</w>
th is</w>
b e
ea dh</w>
de r</w>
en ts</w>
v i
ean n</w>
m e</w>
an ce</w>
l á
Uni on</w>
d ir</w>
P ar
f f
Co unc
is sion</w>
p o
er s</w>
c om
B allst
Counc il</w>
ti es</w>
i t</w>
n u
t o
R e
l o
lach a</w>
on ra
tion al</w>
p or
ta s</w>
20 0
im isiú
t y</w>
chu r</w>
c e
th er</w>
b u
is t
ach a</w>
Comm ission</w>
í tear</w>
c i
mai dir</w>
re d</w>
an na</w>
or d
v er
a bh
ro m</w>
e o
1 9
a te</w>
fao i</w>
ic h</w>
in e</w>
p er
p r
ai n</w>
g e</w>
n ach</w>
wh ich</w>
á s</w>
am h
Sta tes</w>
am h</w>
each t</w>
ta r</w>
imisiú n</w>
bhf u
b l
f rom</w>
ti ve</w>
g C
d á</w>
ch omh
s t</w>
m ar</w>
id ir</w>
it s</w>
la tion</w>
ar e</w>
each ta</w>
bhfu il</w>
d s</w>
air t</w>
in a</w>
ar y</w>
d on</w>
C u
ec t</w>
ré ir</w>
ái t</w>
ir í</w>
gc omh
a on</w>
l ac
re c
l en
gh n
ag h
i ú</w>
d ing</w>
ó i
ac c
ma y</w>
ai l
T rea
f é
in g
I n
de d</w>
r ai
é i
m h</w>
A n</w>
n á
m ea
íon n</w>
ea l
Co imisiún</w>
a th
a tions</w>
ea r</w>
ó n</w>
Aon tais</w>
ea ch</w>
w or
ag e</w>
pro v
len a</w>
n d
B h
n a
u d
m ar
ío s</w>
ion s</w>
dh éan
is h
oi b
g r
ta k
es s
m e
i om
s é</w>
re n
C on
ri al
I I
á lacha</w>
th e
ap pl
ea d
ar r
a on
20 1
á t</w>
for m
in n</w>
re f
er e</w>
ou t</w>
Trea ty</w>
n ta</w>
f eidh
a ve</w>
á bh
ta c
m o
p u
su b
ag ra
íoch t</w>
du c
s ta
d ar
e t</w>
f in
lai min
im h</w>
p os
ái d</w>
co un
é is</w>
m ents</w>
gn íomh
í r</w>
li am
th ei
ei le</w>
a u
c er
i al</w>
c omm
b li
ph ob
p ri
onra dh</w>
ear t</w>
f ol
e á
C omh
n -
b o
im h
an n
h Eorp
t ú</w>
lea g
R ial
hEorp a</w>
an y</w>
c lu
an t</w>
Ballst áit</w>
n ó
P h
sp ec
Par liam
b h</w>
ai s
o ther</w>
i on</w>
re s</w>
t í</w>
tr an
w n</w>
t ar
Comm un
ul d</w>
e v
Eorp ach</w>
in t</w>
d ta
par agra
C H
b le</w>
is ions</w>
d l
c r
in sti
bh ain
t ri
Parliam ent</w>
se d</w>
ná isiú
is t</w>
ó r
o ir
e t
A I
éad faidh</w>
i fi
w ith
P ro
thei r</w>
i c</w>
en d
Ch omhairle</w>
th r
l ean
p h</w>
acc ord
em ent</w>
A R
p re
laimin t</w>
T H
en ta
é ad</w>
I n</w>
ú ir
ear ta</w>
ar na</w>
ic ation</w>
i es</w>
ar tha</w>
s er
g ach</w>
d a
v e
de c
is e</w>
N o</w>
Sta te</w>
ti ú
ch t</w>
por t</w>
b un
ic e</w>
t ú
ab le</w>
i o
ur t</w>
op er
com p
é id</w>
h ave</w>
re g
o u</w>
er red</w>
t w
os e</w>
paragra ph</w>
s m
sh o
re qu
ú s
Eorp aigh</w>
ch o
Ch omh
accord ance</w>
o ur
re ith
na tional</w>
ai th
agh aidh</w>
n í</w>
u m</w>
ái l
Ballst át</w>
ti v
ad op
ta bl
N ame</w>
i g
náisiú nta</w>
a sc
s í</w>
aíoch ta</w>
th or
íoch ta</w>
en er
ó ir</w>
lac adh</w>
Co urt</w>
ea s
e w</w>
á la</w>
es tabl
es s</w>
on e</w>
ei th</w>
is te</w>
aíoch t</w>
Commun ity</w>
g o
dhéan amh</w>
s te
lo w
gu lation</w>
R o
u s
d is
bh eith</w>
s an</w>
ref erred</w>
ar d</w>
í or
om h</w>
un der</w>
n ame</w>
f ear</w>
gcomh réir</w>
á th
t ra
pro ce
ean na</w>
i le</w>
ch a</w>
bh eidh</w>
s oc
fi dh</w>
ach án</w>
a f
áir ithe</w>
E A
ea s</w>
I N
a v
ea mh</w>
c ur
air g
inn eadh</w>
N í</w>
i g</w>
h as</w>
i ar
Re gulation</w>
gh t</w>
in ter
ou r</w>
n á</w>
t or
par tic
p res
il l</w>
each a</w>
is ion</w>
ó irí</w>
u n</w>
con cer
A n
fh or
su ch</w>
O N
iú n
im pl
d er
pro duc
Ch o
s o</w>
fé idir</w>
ro u
prov isions</w>
k s</w>
i ad</w>
i ties</w>
1 0
gc u
e is
fol low
pro vi
p ol
gra ítear</w>
y ou</w>
n g
s on
th abh
aíoch taí</w>
tr í</w>
d éan
ial ta</w>
m on
Ch onradh</w>
ío l
c l
ain t</w>
dta graítear</w>
establ ish
r ó
bhf eidh
concer n
E U</w>
tran s
feidh me</w>
l é
r í
r ú
A N
ai d</w>
su l
n ec
n ea
g á</w>
im eachta</w>
Aon tas</w>
c as
on n</w>
E C</w>
in clu
ch t
gra m
gc ás</w>
bli c</w>
mea su
áir g
e ir
v el
h o
id ir
j ec
il l
ing s</w>
con t
U imh</w>
t en
g i
f re
C E</w>
Rial achán</w>
n am
c es</w>
wor k</w>
re sp
TH E</w>
ío ch</w>
T I
phob ail</w>
r ú</w>
á l
ff ic
o un
sho uld</w>
A E</w>
s anna</w>
su p
se l
S u
lean as</w>
measu res</w>
with in</w>
airg ead
A d
form ation</w>
l í
19 9
si ad</w>
t é
T á</w>
m u
iú il</w>
am ach</w>
en ce</w>
m an
ói dh</w>
o s</w>
ú n
each taí</w>
S c
j ect</w>
lach t</w>
ai gh
D éan
bhfeidh m</w>
oib r
i p
amh áin</w>
it te
con di
g an</w>
do wn</w>
s na</w>
th aí</w>
gC omhairle</w>
pu blic</w>
f u
ea l</w>
1 2
thabh airt</w>
o g
for álacha</w>
k g
w ill</w>
en s
au thor
I s</w>
D ec
a ted</w>
ú dar
lá r</w>
n e</w>
fin an
or e</w>
t -
S t
ci al</w>
n íos</w>
om ic</w>
nea mh
ser v
ái r</w>
s íos</w>
is tea
B eidh</w>
ni ú</w>
st ru
ó is
ac t</w>
p ur
in to</w>
follow ing</w>
íoch taí</w>
ir e</w>
pl ac
cu r</w>
e ren
inn íol
ái d
bh ar
á n
úir t</w>
bhain eann</w>
es e</w>
bh í
impl em
pol ic
en ti
chu id</w>
it e</w>
mh ar
d ure</w>
l im
o la
ener al</w>
O R
C E
nu a</w>
s y
A c
all y</w>
ch eart</w>
ch áin</w>
l an
sm an</w>
si d
Ph ar
e en</w>
a y
wh ere</w>
nó s</w>
ean n
ta ch</w>
I -
ver n
ach t
O mb
Omb ud
eo la
m s</w>
insti tu
2 0</w>
g Coimisiún</w>
s onra
Phar laimint</w>
tiv es</w>
de vel
it or
in formation</w>
ap pro
A l
kg m</w>
condi tions</w>
1 3
be tw
en tr
ul es</w>
re la
betw een</w>
B an
P re
ó ir
Ombud sman</w>
Th is</w>
ph áir
le g
i ti
do es</w>
v al
an ta</w>
d t
af ter</w>
pro gram
ch an
l es</w>
eidh m
N u
r a</w>
th o
i a</w>
O F</w>
tak e</w>
h aghaidh</w>
ir st</w>
ta s
l íon
po in
y p
th u
each t
m Ballstát</w>
B o
fi le</w>
or der</w>
nec ess
se t</w>
gu r</w>
u p</w>
ol u
sc ri
s a
tic e</w>
h u
reith iún
1 0</w>
be en</w>
re o
itte e</w>
gh lacadh</w>
b earta</w>
ach t</w>
F or
ne w</w>
i gh</w>
C O
ac u</w>
ul ar</w>
n al</w>
insti tiú
c rea
c ú
ac tion</w>
W h
com pl
rial acha</w>
s o
O N</w>
ío dh</w>
devel op
necess ary</w>
oper ation</w>
tr á
in te
emb ers</w>
ai sp
S e
i f</w>
g an
en d</w>
airgead ais</w>
inníol lacha</w>
il ity</w>
k e
for e</w>
R E
th ose</w>
ne ed</w>
I m
id í</w>
li g
proce dure</w>
í omh</w>
k e</w>
r ann
Chomh phobail</w>
f o
bh é
s ú
l ar
ch ú
phob al</w>
tr í
al so</w>
ei d
h Airteagal</w>
a y</w>
ál ta</w>
v en
gr a</w>
is h</w>
a m</w>
f ic
1 1
E n
appl ication</w>
iar ra
st rai
v er</w>
F éadfaidh</w>
d g
mb eidh</w>
tion sc
provi ded</w>
d í
ta l</w>
cu ir
c y</w>
em ents</w>
ag re
tr é
finan cial</w>
u e</w>
es t</w>
te c
I on
ío c
comm on</w>
chu ig</w>
I S
L A
th an</w>
t ur
enta tion</w>
Par laimint</w>
irtea r</w>
S p
mh air
requ i
ais n
ec on
tri es</w>
i z
k ing</w>
qu al
ob jec
in ear
II I-
i m</w>
op tional</w>
ar d
ái s</w>
oi dh</w>
di rec
ac coun
ré im
istea ch</w>
lei th</w>
f áil</w>
ac ts</w>
the y</w>
t t
ei l
m at
inear álta</w>
E C
1 8
fé in</w>
ean g
ic al</w>
l án</w>
m ore</w>
us tice</w>
ac ting</w>
l ach</w>
U n
r á
ec ted</w>
appro pri
óis ialta</w>
d ra
as s
dec ision</w>
o sc
f ra
ea c
éi f
t ain
sti gh</w>
imh se</w>
ach áin</w>
partic ular</w>
s ain
h áirithe</w>
si gn
ru th
bh for
bh u
ó th
nd éan
th ir
reithiún ais</w>
áil tear</w>
I t</w>
R O
sy ste
g es</w>
T E
or ity</w>
d i</w>
mea s
inclu ding</w>
t ure</w>
D e
t áirg
concern ed</w>
A u
r ic
cu st
is c
bh un
spec ifi
or t</w>
in fh
á irtea
res s</w>
b airt</w>
r ules</w>
an a</w>
f éadfaidh</w>
per io
do m</w>
ra í</w>
ús áid</w>
i b
r each
sti tu
ex p
y ing</w>
201 3</w>
ao ine</w>
chu í</w>
pro pos
ea bh
coun tries</w>
I f</w>
ach tar
un der
T A
ch ea
inn e</w>
j ud
ar m
appl y</w>
Ro ghn
g e
D i
íor tha</w>
ei c
ion ad</w>
19 7
r e</w>
ag es</w>
ens ure</w>
t ain</w>
pl o
an d
lai d</w>
i arr
m ír</w>
e áin</w>
C omhairle</w>
e áil</w>
M ar
b as
áir ítear</w>
os ta</w>
f ac
e d
or gan
u se</w>
Bh allst
ear ch</w>
t á</w>
a te
resp on
g adh</w>
or y</w>
j u
oi fi
b ain
e ff
ac s</w>
J ustice</w>
polic y</w>
c ó
áir ith
m éid</w>
vi ew</w>
ch l
lai stigh</w>
ta ch
bu dg
adop ted</w>
p la
O p
úir te</w>
s lá
establish ing</w>
f irst</w>
T R
ad e</w>
ma j
air e</w>
s ú</w>
r aithe</w>
ra s</w>
la w</w>
e x</w>
c an</w>
os t</w>
thr om
U achtar
is in</w>
F h
co inníollacha</w>
I D
pro b
é ir</w>
ea g
Cu ir</w>
Pre sid
for m</w>
ru ithe</w>
mb er</w>
1 1</w>
ri ú</w>
ain n</w>
Comm ittee</w>
ti me</w>
ill te
d ú</w>
si ble</w>
L u
trans lation</w>
gh ts</w>
fao in</w>
S oc
lei bhé
E x
du l</w>
ion sc
ai m</w>
appropri ate</w>
1 2</w>
M o
bh r
l and</w>
o f
t aithe</w>
c inn
G o
o w
t ly</w>
ear bh
se c
ab ly</w>
be fore</w>
iú la</w>
ho w</w>
la í</w>
c ar
m ade</w>
I I</w>
0 0
st an
th ese</w>
lei th
ni the</w>
sh ao
e l</w>
d ói
l agh
m embers</w>
b a
sonra í</w>
si on
thir d</w>
fre isin</w>
E U
d ate</w>
ro ghn
C l
pr in
Cu ir
plo y
1 5
mar k
eid eal</w>
li the</w>
bh li
C úirte</w>
ear tas</w>
co operation</w>
po w
perio d</w>
m ó</w>
f il
in eá
ó r</w>
G h
al taí</w>
f rea
on ly</w>
oc al</w>
institu tions</w>
b eidh</w>
t áil</w>
con sul
G eneral</w>
du ine</w>
ter s</w>
r an
appl ic
cas e</w>
develop ment</w>
pro tec
ch éad</w>
1 5</w>
c ol
c inn</w>
N o
ch ar</w>
iom lán</w>
C ity</w>
gníomh aíochtaí</w>
y ear</w>
adop t</w>
A m
i li
prob ably</w>
1 6
ei th
iom chuí</w>
ol áth
da ta</w>
ph áirtea
cur ren
A in
ó far</w>
an ach</w>
dl í</w>
ai b
U N
Airtea g
A N</w>
ti c</w>
m ean
in f
d ic
A g
te x
ghn íomh
mh ír</w>
man ag
produc ts</w>
T aisp
éad far</w>
dl í
ú n</w>
sup port</w>
l in
st s</w>
mb ain
b a</w>
p ay
en cy</w>
ti the</w>
d ú
i f
y our</w>
ain n
E R
S h
tu air
ch n
M H
s each
m í</w>
n na</w>
Artic les</w>
1 4
s ao
l í</w>
3 1</w>
Comm ent</w>
bun ú</w>
ap p
E N
ce p
im e</w>
al s</w>
se ir
eac nam
I ar
1 6</w>
ve l</w>
nu air</w>
leag tha</w>
om s</w>
E S
s s
l mh
comh ad</w>
w s</w>
accoun t</w>
ic es</w>
1 3</w>
tak en</w>
m ess
ter min
Re public</w>
econ omic</w>
Di rec
leibhé al</w>
entr al</w>
or th
sh oc
bhfor áiltear</w>
mark et</w>
1 7
un d</w>
é il
éi le</w>
trí ú</w>
Déan faidh</w>
éan na</w>
i te
om e</w>
implem entation</w>
Airteag ail</w>
maj ority</w>
v o
ré ig
d tí</w>
Europ e</w>
áirith iú</w>
N ew</w>
19 8
u p
ri ght</w>
f ul
on s
tú il</w>
in do
re e</w>
c ap
ac ti
rea ch</w>
eidhm iú</w>
c or
institiú idí</w>
wh en</w>
co s
á ta</w>
go vern
t á
sc rí
aisn éis</w>
ear tais</w>
aib id
in te</w>
tri bu
Uachtar án</w>
tré imhse</w>
specifi c</w>
tea ch
t íortha</w>
t yp
ob lacht</w>
j o
1 7</w>
chu i
áir eamh</w>
_ B
tr y</w>
dói bh</w>
é ag
f a
w as</w>
p áir
ffic ial</w>
vi ties</w>
c eann</w>
Ch úirt</w>
p le</w>
P r
O ifi
í l</w>
ur ing</w>
ist ra
L ea
ei s</w>
prin ci
scrí bh
ter r
N A</w>
ti ú</w>
3 0</w>
re plac
n- áirítear</w>
f ó
m es</w>
c inneadh</w>
leg is
ons ab
m í
Presid ent</w>
di t</w>
S el
ri ghts</w>
oi bl
ch ar
II I</w>
organ is
em ploy
le vel</w>
fh áil</w>
f t</w>
acti vities</w>
th rou
d y</w>
lac faidh</w>
a íoch</w>
o ff
ean gal</w>
1 4</w>
ar thaí</w>
ai d
gc o
t or</w>
ró tac
per son
lea th
tr i</w>
m i
f ish
objec tives</w>
at ing</w>
seir bhí
resp ect</w>
Ban k</w>
the m</w>
A r</w>
or d</w>
m á</w>
le o</w>
g y</w>
lach taí</w>
on g</w>
re sul
O J</w>
illte án</w>
ea gra
co l</w>
Cho imisiún</w>
ur a</w>
ch os
air eacht</w>
fi ed</w>
aon tú</w>
A L</w>
pur su
the re
do cu
ist í</w>
par t</w>
n o</w>
te or
me work</w>
d ress</w>
ar asc
l is
el l</w>
ro r</w>
am oun
ion ad
K ing
to col</w>
c ái
po si
concern ing</w>
1 .
an im
ineá l</w>
oibl í</w>
ré as
soc ial</w>
syste m</w>
g ni
gníomh artha</w>
b re
si ú</w>
ec tion</w>
King dom</w>
budg et</w>
with out</w>
s ame</w>
ri acht
lea dh</w>
eren ce</w>
v ed</w>
propos al</w>
k no
re pres
in t
in ation</w>
bh un</w>
stru c
terr itor
ábh áil</w>
L i
i asc
T o
á sanna</w>
fh onn</w>
gc omhairle</w>
de ir
M á</w>
bhain t</w>
r aigh</w>
gníomh ú</w>
eann ais</w>
bas is</w>
V i
r ach</w>
A t
ou s
mbain eann</w>
le v
v ir
1 8</w>
scríbh inn</w>
Co iste</w>
ru d</w>
e qu
te chn
mh ain
I R
min istra
ch ó
con tribu
tex t</w>
l ist</w>
v is
ach taí</w>
sp óirí</w>
se r</w>
S how</w>
B a</w>
earbh ú</w>
ail ed</w>
pr om
s on</w>
Taisp eáin</w>
chu ir
IN G</w>
n ú</w>
ta g
sub m
B H
st r
I r
w e
I O</w>
ch e</w>
Roghn aigh</w>
reo ir</w>
200 9</w>
en ting</w>
Pro tocol</w>
de termin
líon adh</w>
iú ch
nu mber</w>
ai la
g iúil</w>
fh é
ea d</w>
ph o
se con
ma ke</w>
enta l</w>
íoch a</w>
bh onn</w>
lar ation</w>
a st
l ed</w>
for ce</w>
ai ge</w>
K D
rela ting</w>
di es</w>
ta tion</w>
ri ar
p tion</w>
mean s</w>
n ai
la s
partic ip
éag sú
tea cht</w>
d aoine</w>
mu st</w>
Ain m</w>
200 6</w>
e ist</w>
an g
pur pos
iarr aidh</w>
im por
or s</w>
g n</w>
ch éile</w>
Bh reithiúnais</w>
F or</w>
at h</w>
ábh ar</w>
pro c
feidh m
sub ject</w>
e a</w>
olu tion</w>
2 2
feidh m</w>
U R
údar áis</w>
cas es</w>
le gal</w>
w ay</w>
se cur
200 7</w>
am a</w>
es sion</w>
am en
L I
o d</w>
h e</w>
re lev
po int</w>
gC omh
tic al</w>
b ility</w>
fra mework</w>
2 3
tw o</w>
nd áil</w>
ad ministra
éi m</w>
f ication</w>
ch lár</w>
o il
is c</w>
chu m
th air</w>
de s</w>
Go vern
b r
orth u</w>
u sed</w>
d ó</w>
200 8</w>
mhain ní</w>
vir on
un ds</w>
ear s</w>
A C
prom o
author ities</w>
ap prov
n amh</w>
sa or
con f
unc tion
throu gh</w>
m ór</w>
aila ble</w>
í n</w>
our nal</w>
m ail</w>
2 5
inf o</w>
ex t</w>
a tional</w>
Sc ri
en t
program me</w>
ain g
ú il</w>
ic e
Ch un</w>
is éad</w>
im p
eola s</w>
bh í</w>
th er
ré amh
ei mh
de fin
_ S
Ar d
ao in
O fficial</w>
J ournal</w>
A G
M E</w>
o l</w>
c ai
unction ing</w>
gh abh
Comh ad</w>
Eor ai
relev ant</w>
idir náisiúnta</w>
sel ected</w>
Oifi giúil</w>
throm lach</w>
dec isions</w>
fhé idir</w>
B un
b an
sion s</w>
on g
F ol
c al
a ítear</w>
Eorai p</w>
ar th
ai m
F ile</w>
F in
A ir
g ro
G an</w>
E M
pháir t
leag tar</w>
u ir
program mes</w>
oun d</w>
ev er</w>
tu ithe</w>
v ing</w>
m an</w>
A f
Ir is</w>
av ing</w>
inter national</w>
secur ity</w>
f adh</w>
R íocht</w>
g ear
eá n
rótac al</w>
An ne
o ch
tur al</w>
m ain
iom p
os ta
ex am
an nu
con tr
mh í
th ar</w>
o ir</w>
st ain
2 3</w>
lea sú</w>
ist íochta</w>
e te</w>
tor s</w>
i p</w>
eidh me</w>
cer tain</w>
c eart</w>
t os
L E</w>
el d</w>
tu arasc
Eorp acha</w>
pu bl
pháirtea ch</w>
da y</w>
Anne x</w>
3 0
éi g
déan faidh</w>
2 7
ifi ed</w>
Wh ere</w>
la tions</w>
it ure</w>
é ar</w>
manag ement</w>
l ine</w>
G n
requ est</w>
í omhair
st ar
do char</w>
e y</w>
ain m
ver y</w>
ac tions</w>
bhun ú</w>
protec tion</w>
chan ge</w>
ai sc
Déan far</w>
R i
áid í</w>
an c
ous ly</w>
fhor bairt</w>
comp et
a íonn</w>
y ears</w>
sp eis
cust oms</w>
end iture</w>
st ri
mh eas
réig iú
ear n
1 9</w>
d ío
éif each
secon d</w>
li ú
2 9
en e
soc i
o k</w>
A th
gc rí
imisiú in</w>
ch inneadh</w>
av ailable</w>
replac ed</w>
oibr e</w>
ar ds</w>
2 5</w>
et ary</w>
bli ana</w>
g eneral</w>
C onradh</w>
gcrí ch</w>
th ar
I L</w>
in iti
gh air
lea t</w>
indo w</w>
infh eidhme</w>
ro inn
ábh artha</w>
an not</w>
í s</w>
re port</w>
pl es</w>
ob h</w>
wh e
s á
bu t</w>
T u
Nu a</w>
con s
E EC</w>
our ces</w>
ch án</w>
Re g
Al l</w>
aigh de</w>
ve st
gr an
Cho imisiúin</w>
ob lig
lu ais
leag an</w>
th ionsc
li osta</w>
exp enditure</w>
tak ing</w>
el y</w>
no ti
m ás</w>
h is</w>
gcu ir
fol der</w>
5 0</w>
tran sp
ra ch
op in
G N
eff ec
e ol
s óisialta</w>
ap ter</w>
g rou
is ed</w>
pri onsab
pre jud
R em
ch omh</w>
O sc
n on
a tive</w>
A s</w>
un anim
s ór
o ve</w>
Cu m
. e
A CH
establish ed</w>
T it
ter m</w>
en viron
l inn</w>
requi red</w>
omh ír</w>
o us</w>
t Aontas</w>
nd ála</w>
pursu ant</w>
AN D</w>
ur o</w>
bhli ain</w>
eo irí</w>
dh á</w>
amoun t</w>
2 4</w>
T eacht
E v
á nach</w>
osc ail
sh ain
Iar scríbhinn</w>
ro imh</w>
s in
op en</w>
20 20</w>
rec omm
ór ais</w>
al ta</w>
Sel ect</w>
tú la</w>
2 2</w>
u ile</w>
tionsc ad
dh í
c éanna</w>
oib leag
2 .
un d
aibid il</w>
en g
cái lithe</w>
C ON
ó g
annu al</w>
ro gh
in v
Aon taithe</w>
de ci
ar eas</w>
qual ified</w>
mh éid</w>
cont ro
ba sed</w>
Trea ties</w>
as se
údar ás</w>
w ell</w>
201 4</w>
réim se</w>
p s</w>
M a
Ad d</w>
ur al</w>
du ties</w>
L eis</w>
l ess</w>
r ío
ai c
E con
táirg í</w>
r tha</w>
p t</w>
ea p
si ve</w>
m il
ea la
v en</w>
bo dies</w>
é acs</w>
on n
o k
cu m
requi re
sc a</w>
cr it
R A
stitu tion</w>
iú l</w>
h ol
cu mh
Tit le</w>
gC onradh</w>
n at
é ir
sub paragraph</w>
aigh de
TI ON</w>
D el
Bhallst áit</w>
qu es
Commun ities</w>
wh o</w>
su m
lim ist
con si
chea p
provi de</w>
o m</w>
iarra tas</w>
coun try</w>
tea cht
an u
speis ialta</w>
2 1</w>
M e
Econ omic</w>
im um</w>
2 8
ach i
N ol
fil es</w>
b ene
sór t</w>
comm un
P ol
íor bh</w>
Ch apter</w>
mar k</w>
ra m</w>
prejud ice</w>
eo ir</w>
CE E</w>
comh air</w>
rea tha</w>
to il</w>
ach ta</w>
gn óth
abh air</w>
mai th</w>
ro cht
la tive</w>
ul t</w>
E ag
Dec laration</w>
ai dh
Uni ted</w>
s each</w>
is su
up on</w>
t re
serv ices</w>
de leg
U S</w>
E ac
gComh phobal</w>
Dec ember</w>
u ation</w>
th s</w>
oláth ar</w>
reg ard</w>
F il
N íorbh</w>
c ru
Con stitution</w>
si ú
ar ea</w>
R é
tu g
lí on</w>
f aí</w>
cu id</w>
Op en</w>
Ú s
3 .
sc rú
poin te</w>
ain m</w>
t eic
person s</w>
t air
s ean
chu mh
our ce</w>
v ó
in crea
Y ou</w>
c earta</w>
A P
i de</w>
S y
13 0
m is
eal l</w>
ri the</w>
ear raí</w>
al ar
mess age</w>
b ur
_B AR
o wn</w>
ain ing</w>
ra tion</w>
inn eo
ei gn</w>
applic able</w>
Eac nam
bun aithe</w>
strai m</w>
Ban c</w>
tea g
C rea
r th
KD E</w>
implem enting</w>
T o</w>
l á</w>
C ol
om p
Bhallst át</w>
E r
Ch u
fao ina</w>
sh u
P o
M in
wor d</w>
aon tuithe</w>
acc ess</w>
D earbhú</w>
ái de</w>
par t
gn íomh</w>
ion al</w>
imh e</w>
ao i</w>
Osc ail</w>
roghn aithe</w>
ch r
a ff
agre ement</w>
p er</w>
m en
p a</w>
er ies</w>
é ar
e -
Nol lai
ic im
í n
2 7</w>
ul tural</w>
cu spóirí</w>
h e
de p
author ity</w>
legis lative</w>
be ing</w>
E arr
spec ial</w>
posi tion</w>
s ing</w>
o w</w>
end ar</w>
ús áid
tho gra</w>
e uro</w>
E S</w>
fh rea
P H
reach ta
val ue</w>
sh ip</w>
ti t
pos sible</w>
ath rú</w>
S er
ta i</w>
mh í</w>
Nollai g</w>
2 8</w>
ac mhainní</w>
ul ti
tac aíocht</w>
la y</w>
e ti
ail s</w>
el l
Ph oblacht</w>
eal th</w>
amen ded</w>
f y</w>
ol og
T A</w>
la íonn</w>
typ e</w>
ol taí</w>
re p
re co
B ain
chos aint</w>
v es</w>
Direc tive</w>
cinn tí</w>
comh altaí</w>
éad ú</w>
lé ir
gC úirt</w>
2 4
0 0</w>
ord ú</w>
con clu
Co uld</w>
di ff
po sed</w>
S I
mb eadh</w>
ói p
áil te</w>
o ds</w>
200 4</w>
ái de
E I
t us</w>
th ree</w>
LA CH
teach as</w>
air eachtaí</w>
pu t</w>
C AI
riacht an
té arm
ou t
pow ers</w>
h ic
ic a</w>
produc tion</w>
C entral</w>
é ise</w>
of the</w>
ábh air</w>
ain st</w>
scri ption</w>
riar acháin</w>
ac k
eith ic
ad dress</w>
er c
roinn t</w>
require ments</w>
air í</w>
S ave</w>
lea st</w>
whe ther</w>
curren t</w>
N e
ven tion</w>
tor y</w>
res earch</w>
l ann</w>
on artha</w>
fa ult</w>
tac t</w>
Er ror</w>
éagsú la</w>
tac a</w>
G o</w>
polic ies</w>
lea r</w>
D u
thr ú</w>
st ra
g in</w>
cuir fidh</w>
ag ainst</w>
cu irtear</w>
2 6
O r
im age</w>
i gh
recomm end
consul ting</w>
D o</w>
D an
gu lations</w>
ion ó
ffic i
eola dh</w>
G re
A s
L o
Am er
agre ements</w>
ve hic
s it
re spec
in e
eacnam aíoch</w>
A g</w>
gni omh
id enti
ice á</w>
201 1</w>
techn ical</w>
sign ed</w>
proce du
jec ts</w>
an túil</w>
Sta tu
Ev olution</w>
cont in
F unctioning</w>
st ance</w>
á r
d uring</w>
air each
Cuir fidh</w>
N íl</w>
lan gu
ac qu
y s</w>
pay ment</w>
ch inn
bh íonn</w>
tt p</w>
ch é
res ources</w>
in ch
f ach</w>
eir iceá</w>
chu im
Fh eidhmiú</w>
off ice</w>
bh reith
ne e
de f
ob air</w>
io us</w>
d ach</w>
M ar</w>
dra ft</w>
lá thair</w>
eagra íochtaí</w>
re land</w>
in stru
as c</w>
approv al</w>
óir eacht</w>
p y</w>
ainn eacha</w>
seach as</w>
n aithe</w>
D e</w>
rec ei
oib riú</w>
G inearálta</w>
l t
ti fic
w r
seirbhí sí</w>
princi ples</w>
co ur
en ted</w>
f eadh</w>
l oc
rai bh</w>
M ess
s aí</w>
h ttp</w>
Q u
mon ths</w>
ad di
lagh ad</w>
2 6</w>
procedu res</w>
t ter</w>
plac e</w>
or g</w>
amh ail</w>
Amer ica</w>
ei ther</w>
air s</w>
pr ac
wor k
vest ment</w>
slá ndála</w>
ph s</w>
s -
Ch ar
ap poin
fre e</w>
a ti
deir eadh</w>
unanim ously</w>
ial s</w>
Soc ial</w>
réim sí</w>
I reland</w>
m ion
M eiriceá</w>
in mh
T OR
th ere</w>
ruth ú</w>
s k
c eang
per form
an ts</w>
ac k</w>
T Y</w>
ái p
tak ings</w>
car ri
bu n</w>
sc río
arr aing
d ist
chui ge</w>
b ith</w>
ate g
In ter
ola dh</w>
me di
ab out</w>
non -
M on
p oiblí</w>
ne t
cr im
Í O
ór táil</w>
Su b
J o
g inearálta</w>
rial ú</w>
lu ach</w>
St át</w>
T eideal</w>
A p
ver s
é an</w>
ord in
res t</w>
gr ach</w>
P RO
employ ment</w>
eff ect</w>
en s</w>
tuarasc áil</w>
Statu te</w>
d ers</w>
ul ar
it ted</w>
ain c</w>
gniomh ú</w>
s ch
ra dh</w>
organis ations</w>
h ealth</w>
Earr áid</w>
ex is
go ods</w>
ai st
Y our</w>
ex erc
ún amh</w>
m ura</w>
arr ang
mo dh
C al
AG US</w>
d ré
Ch onartha</w>
w ant</w>
e ting</w>
ar b</w>
4 0</w>
oc faidh</w>
is tiú</w>
CO MH
z e</w>
chl áir</w>
ch ec
administra tive</w>
re st
mhar c</w>
fhor álacha</w>
per son</w>
gc ó
ear tú</w>
w indow</w>
H igh</w>
li ed</w>
h ar
t aighde</w>
ear r</w>
á d
cuir eadh</w>
ti z
is te
aoin iú</w>
dta obh</w>
sh on
m p
g lacadh</w>
tit le</w>
bhu an
b eartais</w>
D o
tr ea
c re
pl y</w>
D a
lu ch
is ation</w>
onra í</w>
il leadh</w>
íoc aíochtaí</w>
ao ir
lá n
as t</w>
TE R</w>
su as</w>
ch ai
bhr í</w>
in ten
ag at</w>
su stain
in se</w>
G ach</w>
Del ete</w>
tra cha</w>
ti s
p e
mo di
e on
ci tiz
i dh</w>
2 9</w>
im eachtaí</w>
dar a</w>
por ts</w>
inclu de</w>
gc eist</w>
ex cep
bh re
C ruth
to m</w>
th ré
pre par
c ead
ta ble</w>
st ais</w>
iú cháin</w>
E AR
oper ations</w>
li ú</w>
bh fi
Dec ision</w>
tea ch</w>
or ig
eren t</w>
ag ric
S ábháil</w>
dh u
éad fadh</w>
i tal</w>
ili ties</w>
sonra cha</w>
TR AN
opin ion</w>
ite m</w>
lea se</w>
transp ort</w>
nó sanna</w>
s af
w w
th áirg
3 2</w>
il e
ch ead
oir m
all mhair
tas ks</w>
or a</w>
ch óir</w>
P or
D I
air d</w>
ú cháin</w>
tach ais</w>
la ws</w>
b ar</w>
D is
entr y</w>
dhéan ann</w>
kno wn</w>
in dic
Bo ard</w>
UN I
c a
S a</w>
P ri
contro l</w>
col or</w>
ta lmh
g abh
T reoir</w>
ti l</w>
B u
lea s</w>
t ment</w>
m ost</w>
bhr áid</w>
ar c</w>
qual ity</w>
Ã ³
inneo g</w>
finan c
e oidh</w>
c entral</w>
L ist</w>
bh eartas</w>
Ac c
r eacht</w>
c arr
bo x</w>
té acs</w>
o t</w>
ei p</w>
R eacht</w>
b ec
l ái
f aisnéis</w>
ul lmh
is ing</w>
o cht</w>
teag mh
mai n</w>
ke y</w>
cl áir</w>
rocht ain</w>
ord s</w>
h aving</w>
c ro
_BAR _
TRAN S
in bhuan
ic k</w>
respon sible</w>
tea ng
Con f
im eá
p en
all oc
F irst</w>
lan ds</w>
soc ruithe</w>
I V</w>
fh eidhmiú</w>
an other</w>
Chomh phobal</w>
o v
Im age</w>
y -
m ental</w>
Pro gram
L e</w>
S ch
Ion straim</w>
paragra phs</w>
e ty</w>
thu g
ol ú</w>
arrang ements</w>
al ity</w>
Th ey</w>
P AR
rai th
T ionsc
T F
o st
ish ed</w>
de li
Li osta</w>
A ON
T r
oscail t</w>
for bairt</w>
B ID
B CE</w>
eir eadh</w>
Gn íomh
TOR S</w>
P rótacal</w>
AI R
l ú</w>
ol s</w>
na tion
ab ility</w>
CAI BID
dí reach</w>
t s
pla y</w>
arr a</w>
ex per
e k</w>
dlí th
A L
dh eon
CH AP
ec u
M an
G u
lagh dú</w>
tr om
g et</w>
CHAP TER</w>
territor y</w>
di v
s am
al g
Ac t</w>
th ao
ro imhe</w>
ON S</w>
E u
ing le</w>
en ter</w>
EC B</w>
réas áin</w>
repres enta
ist ance</w>
it or</w>
frea grach</w>
S ec
E dit</w>
M ai
I M
00 0</w>
si a</w>
lí n
r íomh
docu ments</w>
cos anta</w>
F o
201 2</w>
tuair im</w>
ra te</w>
r is
ghn óth
ar an
E an
gi ven</w>
M h
á in
ta l
pr óis
defin ed</w>
Vi ew</w>
ch a
tar m
c lár</w>
ei ce
compl ain
chea na</w>
TRANS LA
f eabh
under takings</w>
CAIBID IL</w>
v ice</w>
v ar
ri th
tarm lig
slá inte</w>
l ú
TRANSLA TORS</w>
Min is
E OR
ex clu
F ó
C annot</w>
m ulti
i de
d áta</w>
F u
purpos e</w>
m ir</w>
do icim
J anu
ion t
S ain
in bh
de t
M embers</w>
ac e</w>
W e
rea son
m un
lach ta</w>
Scri os</w>
Par laimin
F und</w>
f ur
Bh un
l ch</w>
con stitu
comm ittee</w>
chu id
reg ional</w>
iz e</w>
ial laíonn</w>
fé ach
sup por
cust aim</w>
achi ev
ter ms</w>
establ ish</w>
N or
N A
shoc rú</w>
ve red</w>
ra m
inte rest</w>
4 3</w>
s s</w>
aisn éise</w>
trá th</w>
ad ded</w>
ndéan far</w>
Rem ove</w>
F éadfar</w>
w o
el p</w>
u as
fi eld</w>
F r
EU RO
th em
dep end
sean -
aíoch a</w>
f r
ear s
comh air
Cu irtear</w>
I d
B reithiúnais</w>
óir eachta</w>
gran ted</w>
ch tú
h ea
tu al</w>
P u
Nu air</w>
l l
Janu ary</w>
íomh á</w>
l ocal</w>
deleg ated</w>
Crea te</w>
4 .
ó d</w>
to p</w>
l l</w>
d trá
Cuir fear</w>
déan far</w>
con sum
EURO P
6 0</w>
oibleag áidí</w>
n aí</w>
con nec
th re
m any</w>
inn iú
gc eangal</w>
cr íoch
comp eti
de le
Program me</w>
carri ed</w>
itor s</w>
án aigh</w>
acc ession</w>
pr íomh
ch air</w>
M L</w>
reg ions</w>
der og
í re</w>
páir tithe</w>
mh a
F e
eir bhí
cr íocha</w>
lea s
la b
s pl
lean ú
gcu r</w>
w ere</w>
sp óir</w>
nó thaí</w>
ór a</w>
mat er
li ance</w>
a k
L og
bh airt</w>
In iúch
rai mí</w>
pay ments</w>
ch ás</w>
aran te
val id</w>
is ce</w>
J ud
EU R</w>
Fol der</w>
mh ai
gi ve</w>
chan ges</w>
M ás</w>
du i</w>
stra te
pri v
b ra
ó g</w>
o ver</w>
lo g
C om
pháirt íocht</w>
inter nal</w>
_ C
Comh aid</w>
stan dar
s ol
ola s</w>
fu l</w>
éif eacht</w>
co m</w>
aon air</w>
o irí</w>
ti al</w>
shao il</w>
h ear
cap ital</w>
P oblacht</w>
St áit</w>
Í omh
i che</w>
k ed</w>
inv ol
comh aontuithe</w>
a tes</w>
in du
i ted</w>
W ith
ver sion</w>
teic n
purpos es</w>
op e</w>
d taca</w>
ché ime</w>
th ú</w>
I ch</w>
tr áil</w>
ques tion</w>
oblig ations</w>
infh e
i bh
ff airs</w>
strai mí</w>
inte gra
earn áil</w>
EA CH
C I
B ru
re gulations</w>
eren ces</w>
ul ture</w>
si bility</w>
adop tion</w>
w ard</w>
sta laí</w>
fh aisnéis</w>
ai f
te m
ed ings</w>
Par t</w>
tiú il</w>
sú il</w>
bh ar</w>
H T
Ean áir</w>
t Ombudsman</w>
impor t
200 3</w>
chomh líonadh</w>
3 3</w>
is eanna</w>
am end
mess ages</w>
ch i
D en
ío s
mar g
ain ne</w>
in si
tra de</w>
in s
T AI
P lease</w>
ur is
ra tom</w>
l ic
ev ent</w>
U ir
g ed</w>
eag mh
Cruth aigh</w>
Mo ve</w>
D ev
in tí</w>
l d</w>
Eu ratom</w>
princi ple</w>
Mai dir</w>
I s
9 2</w>
lis í</w>
lin es</w>
eo gra
syste ms</w>
i an</w>
ná dú
tific ate</w>
docu ment</w>
mh air</w>
ter nal</w>
lé ir</w>
in iúch
in d
J un
sec tor</w>
s ome</w>
pro ject</w>
C F
IS I
á la
serv ice</w>
eal ach</w>
mh eas</w>
sean- Airteagal</w>
pro jects</w>
téarm a</w>
f illteán</w>
isiú n</w>
meas ure</w>
ju st</w>
er ia</w>
e li
dtrá cht</w>
Ro gh
A ffairs</w>
an seo</w>
w ar
w a
to tal</w>
perform ance</w>
ch ruthú</w>
C ur
ta bhar
fish ing</w>
deci de</w>
h igh
v oc
sh e
s en
gra í</w>
U se</w>
re mo
pro g
ng lacadh</w>
en ces</w>
bhu iséad</w>
teor ainneacha</w>
ta cht</w>
comh ar</w>
c un
b ar
b al
air tí</w>
4 5</w>
200 5</w>
wh ile</w>
h údaráis</w>
gcu id</w>
12 .
H A
201 0</w>
reach tach</w>
bo th</w>
wh ose</w>
mhar g
diff erent</w>
Comh phobail</w>
n er
ass istance</w>
ni gh</w>
sh oláthar</w>
ex ce
fur ther</w>
ath bhreith
P er
sp ri
dh áil</w>
ul y</w>
mar ke
l ong
I S</w>
Con fi
gc r
O B
G lacfaidh</w>
5 5</w>
osta íochta</w>
ass word</w>
Ré amh
inbhuan aithe</w>
ear m
comh lachtaí</w>
E uro
u al</w>
p e</w>
f aisnéise</w>
ábh ach
talmh aíochta</w>
re duc
in al</w>
I omp
3 6</w>
w ords</w>
iasc aigh</w>
un til</w>
o ver
gr ú
spl eá
ra cha</w>
it each</w>
n aigh</w>
ta cha</w>
yp e</w>
tas k</w>
sc i
institu tion</w>
fu inn
d ea
200 1</w>
th en
proce edings</w>
d ar</w>
rea dy</w>
gh ear
tt on</w>
A ud
tor thaí</w>
déan ta</w>
D í
i e</w>
contribu te</w>
ev al
rep eal
E A</w>
Dan mhair
rea d</w>
nu ithe</w>
Con arthaí</w>
m al
Wh en</w>
luch tú</w>
eacht anna</w>
200 2</w>
a er
I N</w>
thionsc namh</w>
su ithe</w>
scrú dú</w>
osc a</w>
l ais</w>
óip eáil</w>
ion ann</w>
S óisialta</w>
bo dy</w>
4 9</w>
Lea th
3 4</w>
lea ch</w>
fh eabh
f earr</w>
dic tion</w>
b pointe</w>
R ec
_ T
instru ments</w>
hu man</w>
as soci
G er
ús áide
mh o
6 6</w>
ró is
ic ations</w>
chuim siú</w>
chomh altaí</w>
b eart</w>
agric ultural</w>
a íodh</w>
oibr íochtaí</w>
É ir
promo te</w>
o ffic
mh aithe</w>
it ing</w>
b ro
ail í</w>
sao ir
N ó
subm it</w>
oifi ge</w>
iomp air</w>
du it</w>
de on
cuir fear</w>
tr aining</w>
é asc
rea t</w>
Bh ainc</w>
thao bh</w>
oi liú
id each
déan aí</w>
sustain able</w>
c ir
por t
for b
direc t</w>
pl a</w>
grou p</w>
ch eann</w>
Teacht aireacht</w>
vi ous</w>
bli ain</w>
b er
at ory</w>
tr u
prionsab ail</w>
pr agh
UR L</w>
A thr
ío r</w>
tionscad ail</w>
sta tus</w>
scri os
nai mh</w>
determin e</w>
M E
mat ter</w>
ac cep
M ura</w>
tr ach</w>
rela ted</w>
f f</w>
ra s
ener gy</w>
a i</w>
R I
P age</w>
u imh
tra s
op tion</w>
h ad</w>
objec tive</w>
comh aid</w>
si ze</w>
ma í</w>
par ties</w>
il y</w>
de m
Den mark</w>
Ú dar
ard aigh</w>
Ro inn</w>
Au thor
wo uld</w>
tea nna</w>
star t</w>
c ásanna</w>
an s</w>
u ser</w>
j uris
gc ásanna</w>
f eithic
Aud itors</w>
th eacht</w>
ch eangal</w>
T ext</w>
3 9</w>
L e
Eag ar</w>
ái leadh</w>
p i
c eap
at ors</w>
féach aint</w>
a or
tho il</w>
o d
Cu st
rann pháirteach</w>
gu arante
gh lac
er ror</w>
c lo
tain e</w>
re sts</w>
fh u
EA N</w>
Ch an
t ent</w>
li tical</w>
F rea
rial acháin</w>
m ember</w>
g Coiste</w>
f ad</w>
di al
L í
o c</w>
Th u
6 5</w>
el ec
mb un
x imum</w>
en h
oib rithe</w>
M I
ri an
A R</w>
in ar</w>
com e</w>
trans la
t om
ste m</w>
ren t</w>
ra íonn</w>
un it</w>
pro per
lí ne</w>
pháir tithe</w>
ne ola
men u</w>
th áth
comp liance</w>
AI L</w>
R ules</w>
- 8
ma king</w>
inte rests</w>
exis ting</w>
eli gi
au se</w>
I D</w>
F illteán</w>
air eachta</w>
De scription</w>
wor king</w>
ph oiblí</w>
ion straimí</w>
ex ten
n ing</w>
cont ain
arraing t</w>
ac tiv
tiú la</w>
ph ri
A mharc</w>
se s
ph ost</w>
ionad aithe</w>
bh eartais</w>
stru chtú
d res
ai te</w>
ci es</w>
rest ric
op le</w>
crea te</w>
t ob
ear c
III- 3
si de</w>
s eas
pho ist</w>
T U
inn ov
div id
S te
CO M
reith iú
juris diction</w>
b eartas</w>
b aint</w>
f aireach
ei gh
Ag re
4 8</w>
Ús áid</w>
st er
pro posed</w>
oir iú
e red</w>
Conf erence</w>
C eannais</w>
resul ts</w>
ren g
mil li
son raithe</w>
amh l
C aibidil</w>
9 0</w>
nee ds</w>
omh al
compet ent</w>
D H</w>
on t</w>
direc tly</w>
ta te</w>
proc ess
EOR P
w ise</w>
th éacs</w>
anc ed</w>
Th eip</w>
N i</w>
9 3</w>
200 0</w>
E olas</w>
5 .
ion c
Cho iste</w>
Iniúch óirí</w>
11 .
sid ers</w>
requ ire</w>
EN T</w>
Á ise</w>
tarmlig the</w>
pow er</w>
gh la
dhéan faidh</w>
cai teachas</w>
lín te</w>
f ound</w>
Fó mhair</w>
s im
S earch</w>
ch ineál</w>
F OR
su sp
st aid
pres ent</w>
legis lation</w>
follow s</w>
e duc
tran si
B y</w>
aidh m</w>
sta te</w>
g l
es ti
en tly</w>
u air</w>
mar gadh</w>
gníomh aíocht</w>
en ess</w>
e án</w>
ch eang
con siders</w>
A sia</w>
oir m</w>
is í</w>
institiú id</w>
g ar</w>
cap ac
riacht anach</w>
meas c</w>
F eidhm
ex pres
d omh
a tic</w>
fic ations</w>
a .e
D h
5 2</w>
c é
und am
in niú</w>
f un
du e</w>
amhl aidh</w>
G rou
ún ú</w>
se tt
r áth
oc k</w>
ob al</w>
er y</w>
b in
app lied</w>
acqu is</w>
un i
specifi ed</w>
p age</w>
fh eidhm
n di
g eogra
li es</w>
la st</w>
gcuir fear</w>
f ailed</w>
d eimh
T os
gh luais
be l</w>
vehic le</w>
stan ces</w>
si c</w>
se qu
exerc ise</w>
dré acht
ús acha</w>
íoc aíocht</w>
rogh a</w>
crit eria</w>
fish eries</w>
D V
urop a.e
me eting</w>
im eanna</w>
trans f
s es</w>
mhar gadh</w>
T e
T EC</w>
5 1</w>
gn áth
ais ghair
Mess age</w>
limist éar</w>
techn olog
st reng
ex pl
char ac
L a
4 1</w>
ref erence</w>
proc ess</w>
fh éadfadh</w>
co vered</w>
Th ese</w>
Ag ency</w>
to gra</w>
o ch</w>
f omhír</w>
T eagmh
C ar
C A
reo far</w>
bur g</w>
bo ard</w>
ai se</w>
E R</w>
ph róis
I ta
se par
trá d
G H</w>
B ain</w>
7 5</w>
initi ative</w>
Ad dress</w>
é ag</w>
fh omhír</w>
environ mental</w>
T ype</w>
sit uation</w>
pe ople</w>
oper ational</w>
nat ural</w>
mo v
la bel</w>
d aon
f a</w>
cumh achtaí</w>
bh earta</w>
b el
undam ental</w>
nádú rtha</w>
li p
é il</w>
g a</w>
O c
Eacnam aíoch</w>
E ach
B ra
th air
financ ing</w>
all ow
isc int</w>
gc ú
ch ru
Id ir
mi an</w>
itor ing</w>
de sign
bhli antúil</w>
ir eachta</w>
eacnam aíocha</w>
Rial acháin</w>
sch em
iont u</w>
có ras</w>
co sts</w>
S et
an ti
O u
ur ram
r eanna</w>
la mh</w>
dh lí
go ti
oir iún
im prov
fac ili
cur tha</w>
R es
N á</w>
Ã º
S ection</w>
4 6</w>
uropa.e u</w>
ni d</w>
derog ation</w>
F ailed</w>
b i
and a</w>
Pro ce
Co py</w>
x ed</w>
mon th</w>
me tho
comp on
ai le</w>
3 5</w>
oifi g
neamh spleá
is éad
dl ú
de red</w>
al ready</w>
aith nid</w>
P O
t ings</w>
eith eamh</w>
Su ch</w>
EUROP EAN</w>
jo int</w>
G ener
F i
E d
vi e
gh eall</w>
feidhm iú</w>
f íor
7 .
tu res</w>
lo w</w>
chuir fear</w>
bu tton</w>
H ow
t S
iú l
t on
resul t</w>
recommend ations</w>
sel s</w>
e ffici
ular ly</w>
dh áta</w>
aith ean
O n</w>
reg ards</w>
prionsab al</w>
gcomh líon
establish ment</w>
I B
ÍO CH
is each</w>
Bhun reacht</w>
ár ta</w>
iom lá
int ro
eo far</w>
eal ú</w>
e dom</w>
thei c
dh i
d ri
ann ex
onn mhair
fheabh sú</w>
C r
T ran
té ar
ex ternal</w>
Govern ment</w>
For eign</w>
íomhair eacht</w>
i i</w>
asse ss
aic i</w>
h institiúidí</w>
c ateg
mhai th</w>
ful l</w>
co uld</w>
ad ing</w>
nam es</w>
in divid
g ure</w>
enti t
dt áirg
am ong</w>
ai t
á fach</w>
rea mh</w>
re en</w>
ú la</w>
Sch eng
PH OB
C CE</w>
Author ity</w>
ndi aidh</w>
in depend
L E
GN O
teacht aireacht</w>
c abh
S O
po litical</w>
cos aint</w>
199 9</w>
199 3</w>
tac ts</w>
idir dh
cro ss
chui bh
Man ag
4 7</w>
ti r</w>
struc ture</w>
ghabh ann</w>
3 7</w>
t óirí</w>
ch taí</w>
sh each
poin ts</w>
C D</w>
í niú</w>
res er
abh ar
H I
Bo g</w>
B re
th in</w>
st or
rou ght</w>
ath oibr
Scheng en</w>
C S
g er</w>
citiz ens</w>
S tar
ne goti
mh u
str y</w>
oifi g</w>
im í</w>
ex tent</w>
ban ks</w>
Ch ec
B ord</w>
no w</w>
as aigh</w>
Rial tas</w>
ái le
s c</w>
mat ters</w>
8 0</w>
lo ad</w>
R u
9 1</w>
m em
ei ght</w>
í che</w>
éad chéime</w>
sc ao
organis ation</w>
environ ment</w>
b order</w>
r eachta</w>
go od</w>
ad a</w>
lea suithe</w>
5 9</w>
No t</w>
wor ld</w>
langu age</w>
er ing</w>
aith each</w>
AI N
s ure</w>
do t</w>
con tact</w>
ch aí</w>
Pro ject</w>
4 4</w>
s ingle</w>
on arthaí</w>
shoc raithe</w>
limist éir</w>
g lac
pos t</w>
mon etary</w>
ay s</w>
S i
th i
ma ximum</w>
In stance</w>
íoc aíochta</w>
tú s</w>
to ge
di fear</w>
at ure</w>
U as
T abhar
páir t</w>
ju st
i as
as k</w>
n s</w>
inn eamh</w>
in ser
determin ed</w>
5 8</w>
tionscad al</w>
rú pa</w>
r eacha</w>
th each</w>
tain ed</w>
particip ation</w>
m a</w>
ist íocht</w>
athbhreith niú</w>
5 7</w>
x emb
n gach</w>
g air
su íomh</w>
gabh áil</w>
comh aontú</w>
bhí thin</w>
Sp á
At lan
ád as</w>
toge ther</w>
chu irtear</w>
aisc e</w>
representa tives</w>
inch ái
dh aoine</w>
cal endar</w>
ó c
iz ation</w>
in ni
dis crim
Comh phobal</w>
territor ies</w>
C ru
u g
thor adh</w>
c iallaíonn</w>
W or
T a
olu m
h ere</w>
R éig
xemb our
c lear</w>
wa ter</w>
s eala
ears anta</w>
eal bh
ea ther</w>
e ve</w>
vo te</w>
h iomlán</w>
f éadfar</w>
f arm
eir m
annex ed</w>
D O
y s
ri anta</w>
iarra tais</w>
ho w
am pla</w>
O ther</w>
D ath</w>
mater ials</w>
eol ais</w>
s ur
4 2</w>
l ong</w>
imeá d</w>
fh éadfaidh</w>
cinn te</w>
bhar r</w>
Acc ession</w>
ó in</w>
th á
t ro
se e</w>
ra on</w>
c all
Jun e</w>
How ever</w>
tic es</w>
mb un</w>
in vestment</w>
t óir</w>
o p</w>
mhar c
N a</w>
C inneadh</w>
Ph rótacal</w>
L in
199 2</w>
t ála</w>
nu mb
ceang lais</w>
In formation</w>
F aoi</w>
Con vention</w>
thré imhse</w>
nation als</w>
inbh insi
for eign</w>
effec tive</w>
riachtan ais</w>
net work</w>
te st</w>
il s</w>
For m
10 0</w>
é al</w>
cor rec
applic ations</w>
An y</w>
Char ter</w>
th en</w>
bu il
C U
.e uropa.eu</w>
P lu
D A
Á ir
t ei
scao il
h elp</w>
f e
O ib
pho inte</w>
m oltaí</w>
i tion</w>
con duc
capac ity</w>
Agre ement</w>
bh áid
éifeach tach</w>
us ing</w>
f aire</w>
cor respon
Lu xembour
sp rea
h al
eo l</w>
dh áileadh</w>
bre ise</w>
ad v
l it
comm it
Ag us</w>
sta ge</w>
ro le</w>
aid reamh</w>
N et
scrío bh</w>
rai c</w>
eá nach</w>
ais c</w>
Each tracha</w>
Íomh á</w>
carr y</w>
7 3</w>
th os
increa se</w>
c aighde
6 .
teang a</w>
serv er</w>
inbhinsi ún</w>
Lu c
ró far</w>
_ D
v il</w>
st aim</w>
in nithe</w>
E D</w>
budg etary</w>
En er
produc t</w>
du alg
dlí the</w>
col l
ad dres
ghníomh aíochtaí</w>
C li
réigiú in</w>
qu o
po ten
leath anach</w>
Sy stem</w>
on táil</w>
lea sanna</w>
form ed</w>
athoibr íoch</w>
t -</w>
forb artha</w>
eal aigh</w>
rach aidh</w>
qu ir
M A
AC H</w>
s ea
jud ic
h ib
Ener gy</w>
u es</w>
in ter</w>
im ir
cho it
R íomh
T AR
th ean
reg ar
d ro
os rú
an al
Luxembour g</w>
Ion tráil</w>
pro por
lu cht
lim its</w>
l ó
g ar
each tais</w>
c ás</w>
ai mh</w>
o ther
n or
gco inne</w>
5 3</w>
é ithe</w>
eil l
comh alta</w>
repeal ed</w>
noti fication</w>
contin ue</w>
c ea
Se o</w>
tac ú</w>
oibr íoch
mon itoring</w>
me et</w>
ex change</w>
Cal endar</w>
compl e
De fault</w>
Af ric
6 2</w>
t ír</w>
ne t</w>
in form</w>
f í
f ostaíochta</w>
Proce dure</w>
Fil es</w>
6 7</w>
d ru
as e</w>
ac tive</w>
educ ation</w>
cu id
saoir se</w>
íon na</w>
ábhach tach</w>
si gh</w>
rela tions</w>
gro w
C er
ord ination</w>
in s</w>
fó gra</w>
chu ir</w>
reachta íocht</w>
Rogh anna</w>
HT ML</w>
F O
if y</w>
fun ding</w>
fi ve</w>
M r</w>
C a
subm itted</w>
jo b</w>
eligi ble</w>
eice áil</w>
F hu
Údar ás</w>
nat ure</w>
e f
chuir eann</w>
amend ments</w>
Do cu
prov ision</w>
p op
gr ant</w>
la y
gc éad</w>
f oir
Air g
pro ve</w>
port un
b rought</w>
B el
sta l
chum as</w>
t A
s ave</w>
rá ta</w>
de b
b ea
Mar ch</w>
D eireadh</w>
t ting</w>
sc ope</w>
ri bu
mar s
ine álacha</w>
gC onarthaí</w>
ch earta</w>
ther lands</w>
r óidh</w>
bhfeidh m
ath ruithe</w>
á r</w>
u r</w>
sh ampla</w>
ré iteach</w>
h aon</w>
dlí n
Im port</w>
mha olú</w>
form at</w>
ea mh
amh ach</w>
aith int</w>
in fra
c c
E ile</w>
teacht aireachtaí</w>
sh eoladh</w>
ful ly</w>
rann chuid
c únamh</w>
C ú
ti m
sh ábháil</w>
ionc am</w>
Luc sam
re tur
on nea
n gníomh</w>
import ant</w>
an aise</w>
Set tings</w>
LACH A</w>
prac tices</w>
n i</w>
grou ps</w>
eis i
ast e</w>
teor ainn</w>
ion ann
id ing</w>
bu sin
ti s</w>
dlín se</w>
cu í</w>
c annot</w>
V er
For álacha</w>
wor ks</w>
intro duc
Soc ruithe</w>
RE S
ta bhairt</w>
du ce</w>
ch ing</w>
T S</w>
pr ice</w>
p aí</w>
jud g
form s</w>
ch óir
RE P
5 4</w>
mo de</w>
def ence</w>
con text</w>
ad just
S ean
3 8</w>
vi a</w>
thug tar</w>
dta bhar
G nóthaí</w>
respec tive</w>
r ith</w>
fi c</w>
ea gr
c la
airgead aíochta</w>
9 5</w>
bas e</w>
C H</w>
work ers</w>
ou se</w>
econ om
d ear
ci b
cheap tha</w>
Un able</w>
S tiú
F I
spri oc
dhi aidh</w>
propos als</w>
t eideal</w>
s ábh
lis ted</w>
inníol l</w>
how ever</w>
compet ence</w>
V E</w>
In fh
á laí</w>
roghn ú</w>
c eann
eis teanna</w>
éi gh</w>
fre edom</w>
f ocal</w>
f ish</w>
direc tory</w>
cú raimí</w>
con fi
Lucsam burg</w>
G l
5 9
un less</w>
sup ply</w>
en se</w>
contr act</w>
v ision</w>
trí d</w>
A M
mb íonn</w>
dec lar
cú l
a le</w>
ú s</w>
si x</w>
g ener
fó s</w>
d aithe</w>
comp an
M eitheamh</w>
mh ea
bh s
M ay</w>
F ish
A b
w it
son rach</w>
appoin ted</w>
7 7</w>
mai l
equ i
da ys</w>
d íol
V I</w>
re lation</w>
dh eimh
de fault</w>
cheap adh</w>
ar c
Ne therlands</w>
ti om
publ ished</w>
consi dered</w>
COM M
re oidh</w>
equ al</w>
ch éanna</w>
ail te</w>
administra tion</w>
other wise</w>
C ineál</w>
tuair imí</w>
pháirt íochta</w>
lim it</w>
8 5</w>
st ór
se oladh</w>
dial o
Parlaimin te</w>
prog ress</w>
ow n
li gh</w>
la dh</w>
dhéan tar</w>
c ói
U imh
. 2</w>
vó táil</w>
tob er</w>
he sion</w>
Athr aigh</w>
é id
mh aoiniú</w>
f oc
Un known</w>
shao thrú</w>
th ig</w>
s earch</w>
priv ate</w>
pragh sanna</w>
op portun
bene fic
A pri
strai té
n eartú</w>
lea bhar</w>
iomp ar</w>
e p</w>
ac y</w>
st u
gu ration</w>
g ur
addi tion</w>
pla y
kno w
O n
At omic</w>
min imum</w>
mh éadú</w>
g lacfaidh</w>
dheon ú</w>
mb ly</w>
eagra íocht</w>
Tionsc ad
Comm on</w>
C y
there of</w>
s ource</w>
s oláth
li ght</w>
U B
T ime</w>
Stiú rth
ti gh</w>
promo ting</w>
W ith</w>
ro und</w>
pre ce
Cl ose</w>
á th</w>
scrios adh</w>
rann pháirtíocht</w>
en cies</w>
d tug
d ge</w>
chu staim</w>
b p
T E</w>
th ag
mh éad</w>
f unc
crit éir</w>
aist riú</w>
w ards</w>
th ac
or ities</w>
gra m</w>
activ ity</w>
- M
sh eas
qu anti
Chomh dháil</w>
A ch</w>
wh at</w>
ti l
nu ála
fo od</w>
bo ok</w>
S TI
fhrea gra
ch es</w>
c las
Oc tober</w>
Apri l</w>
6 8</w>
suppor ted</w>
bh ealach</w>
sh ar
o ideach
curren cy</w>
cib é</w>
c ri
w ays</w>
w at
p aid</w>
o t
ghníomh aíocht</w>
accoun ts</w>
ío c</w>
ullmh ú</w>
the or
li ke</w>
l aigh</w>
h igh</w>
conclu ded</w>
ch eannais</w>
a dh
Fhu inneamh</w>
Da ta</w>
dhéan far</w>
c éim</w>
Reg is
Ad amhach</w>
iti me</w>
ion n</w>
C inn
tiv eness</w>
ses sion</w>
o le</w>
ic eáil</w>
co ordination</w>
Col or</w>
ndéan tar</w>
em s</w>
ear r
Pr int</w>
Afric a</w>
tabhar faidh</w>
eval uation</w>
el ds</w>
aff ect</w>
ab ove</w>
Pro per
F unds</w>
A ib
mh al
facili tate</w>
amh arc</w>
F eis
scri b
la th
inn iúla</w>
ate ly</w>
Ard -
Airg ead
8 .
sh óisialta</w>
ifi c</w>
du ty</w>
dist ribu
7 8</w>
w eather</w>
et c</w>
E N</w>
inmh eánach</w>
gnóth ais</w>
g mail</w>
cer tificate</w>
PRO V
tair bh
man u
ent ary</w>
Af raic</w>
or t
ob serv
c ineál</w>
A ith
tug tha</w>
t- aon</w>
comp ati
á g
léir iú</w>
issu e</w>
sh onra
iún acha</w>
cons ist
comh ré
I C
C ó
Á N</w>
tic s</w>
rial aithe</w>
rai m</w>
gcomh ar</w>
Uir lisí</w>
Réig iú
J uly</w>
Bre is
0 .
ol bar</w>
ne w
mar ks</w>
m ór
in d</w>
ear taithe</w>
A TION</w>
or iz
lé amh</w>
e th
chú l
L eas
á nta</w>
un tas
u m
tem por
oir línte</w>
lu aite</w>
i ch
gníomh aíochta</w>
ol l
in quir
cho imeád</w>
T ionó
ra íodh</w>
chumh acht</w>
b on</w>
at tach
T ar</w>
T O</w>
Á IR
pre v
equ ip
al ia</w>
7 0</w>
th aisp
mheas ann</w>
exam ple</w>
a sp
U p
Pu blic</w>
Á LACHA</w>
sel ect</w>
fh aigh
au dit</w>
an o
air de</w>
Rial aithe</w>
urram ú</w>
phri onsab
En ter</w>
B r
B eal
st áil</w>
l ing</w>
addi tional</w>
S onraí</w>
B e
l é</w>
know le
im port</w>
déan amh</w>
c órais</w>
ISI ONS</w>
í ní</w>
in es</w>
co stais</w>
M ac
A G</w>
th reach</w>
ra di
con arthaí</w>
cl ose</w>
bu iséad</w>
á s
f unds</w>
ex c
compl y</w>
co iste</w>
6 4</w>
or ies</w>
fin d</w>
ens uring</w>
chomh ad</w>
reco gn
oi d</w>
gc lár</w>
With out</w>
5 6</w>
. 11.
téar maí</w>
tach as</w>
tac aíochta</w>
par ty</w>
li f
fu d</w>
f unctioning</w>
d ti
aon toil</w>
F é
Euro just</w>
modh anna</w>
ghnóth ú</w>
eil leag
appl ying</w>
K on
ur tha</w>
om in
m Banc</w>
Pol ic
Op tions</w>
In di
si b
cal cu
G H
u ithe</w>
there fore</w>
re ports</w>
mhar a</w>
at or</w>
ad ap
ref erences</w>
comm er
T O
An ju
éasc ú</w>
el op
b ru
No v
C R
leanú nach</w>
en ding</w>
doicim éid</w>
and id
Aib re
resul ting</w>
equi val
e very</w>
co urt</w>
Cum raigh</w>
18 2</w>
th arraingt</w>
reithiú na</w>
consi der
aith eamh</w>
S S
Rial tais</w>
O ff
Iomp órtáil</w>
G hu
6 1</w>
tiv ely</w>
tain ing</w>
rial ta</w>
raith eoir</w>
mharg aidh</w>
a z
process ing</w>
ná r</w>
amoun ts</w>
P ac
EM AIL</w>
standar ds</w>
pro f
náisiú naigh</w>
lea sa</w>
inchái lithe</w>
co ver</w>
su la</w>
sc ann
pri ority</w>
olum n</w>
inser ted</w>
el s</w>
chead ú</w>
ac kg
N ext</w>
7 6</w>
en cour
PROV ISIONS</w>
Anju ta</w>
pr ices</w>
pol ai
impor ts</w>
cross -
pl em
p áirtea
ainm niú</w>
Sp ec
an aigh</w>
a bhf
7 2</w>
pro hib
ordin ary</w>
conf erred</w>
bain c</w>
Dev elop
As se
tion char</w>
p assword</w>
institiú id
cht ála</w>
st aid</w>
si lt
ris k</w>
illte áin</w>
fo st
ach omh
Beal taine</w>
sp ace</w>
or acha</w>
mea st
gro unds</w>
fh oil
cl im
L oc
D E</w>
Bru s
í s
voc ate
ta tions</w>
m al</w>
a ta</w>
a ta
Teacht aireachtaí</w>
ten c
sci enti
s aithe</w>
c é</w>
C i
un tas</w>
plac ed</w>
g en
contribu tion</w>
S we
Por tu
O b
9 6</w>
8 8</w>
án na</w>
m ing</w>
ch as</w>
V al
Re pres
H el
fh o
e ts</w>
S lá
th ío
innov ation</w>
ig éan</w>
gn íomhair
bu iséad
AR TH
ró l</w>
la ying</w>
ionad aí</w>
en able</w>
busin ess</w>
í mh</w>
éig ean
pl an</w>
neamh bh
mhal airt</w>
lu iche</w>
fac e</w>
c abhair</w>
S et</w>
re ven
n u</w>
langu ages</w>
judg ment</w>
ide lines</w>
du ithe</w>
dta g
contr acts</w>
N á
L ic
Grou p</w>
Fish eries</w>
FOR ÁLACHA</w>
Ã º</w>
m aoiniú</w>
TR EA
A bh
l s</w>
chomh ar</w>
D ra
Chec k</w>
C _
trom lach</w>
osta íocht</w>
la ter</w>
fuinn imh</w>
deir idh</w>
ACH A</w>
é irí</w>
áir ge</w>
vers ity</w>
isiú nta</w>
da m</w>
F ren
recommend ation</w>
reason s</w>
re view</w>
is es</w>
gi gh</w>
discrim ination</w>
chú r
F re
dtáirg í</w>
Leath anach</w>
t Uachtarán</w>
l he</w>
each trach</w>
NA ME</w>
Jud ges</w>
Danmhair g</w>
D ún</w>
s oláthar</w>
ec e</w>
var ious</w>
lé i</w>
commer cial</w>
ch eisteanna</w>
Th ere</w>
ghn íomh</w>
aon tachais</w>
Jo int</w>
Ad vocate
fi xed</w>
Minis ter</w>
In vestment</w>
sel ection</w>
bel ow</w>
bain istíochta</w>
am b
TI ES</w>
s al
op en
lim ited</w>
lei c
hal f</w>
dec laration</w>
bene f
UB LI
T P</w>
Regis tr
tu illeadh</w>
t aisp
shao l</w>
mov ement</w>
issu es</w>
implem ented</w>
M ea
Fren ch</w>
te red</w>
f l
S ize</w>
I asc
C áip
Au stri
vo tes</w>
so li
mh oladh</w>
judic ial</w>
Éir eann</w>
N E
L an
Govern ing</w>
t omhal
r inneadh</w>
en ame</w>
S cr
ó id</w>
regar ding</w>
Polic y</w>
Lic ense</w>
I na</w>
sta te
for c
co th
an ail
C lár</w>
s rianta</w>
ra tes</w>
prece ding</w>
on d</w>
lái threach</w>
S tenc
Or gan
á ine</w>
saf ety</w>
pri orities</w>
la s</w>
if f</w>
ch on
Bo ok
réigiú nach</w>
or ann</w>
ill eann</w>
ab s
6 3</w>
ver age</w>
sho w</w>
t aigh</w>
glac tha</w>
bo ok
Sc ann
Lea bhar
Con tact</w>
strate g
prev ent</w>
pháirtea cha</w>
in arb</w>
ach ais</w>
Ger many</w>
im prove</w>
govern ing</w>
cú ig</w>
tionsc naimh</w>
ndéan faidh</w>
lu ach
M i
ol d</w>
ail l</w>
EA G
Cu ardaigh</w>
A t</w>
val ues</w>
ph r
co ordin
ch lá
UBLI C</w>
to ir
si the</w>
r á</w>
person al</w>
ful f
dh lí</w>
UNI ON</w>
Registr ar</w>
B rea
tic ally</w>
exce ed</w>
consul tation</w>
bhfi os</w>
bhf oirm</w>
ad lann</w>
Confi gure</w>
A ire</w>
in formed</w>
fa dh
c andid
S E</w>
6 9</w>
rogh anna</w>
restric tions</w>
n áirítear</w>
gh inearálta</w>
dra w</w>
cr íche</w>
M u
equip ment</w>
chomh alta</w>
an aithnid</w>
T ING</w>
In n
su cc
manu fac
c lá
amen ding</w>
_ P
T éacs</w>
x 201
sc or</w>
rá taí</w>
provi des</w>
partic ularly</w>
oblig ation</w>
i ge</w>
ch aighde
W indow</w>
u igh</w>
p earsanta</w>
orig in</w>
govern ments</w>
complain ant</w>
Infh e
I od
E ach</w>
é istea
w er</w>
ra c</w>
ques tions</w>
lu cht</w>
is m</w>
gu idelines</w>
an -
ackg round</w>
ur ity</w>
re ment</w>
govern ment</w>
gcomh air</w>
at ten
ain e</w>
Gener ic
Ed itor</w>
C or
8 59
to gh
tain g
S amh
á iste</w>
eá int</w>
dl eachtanna</w>
Stenc ils</w>
8 2</w>
ser ious</w>
réigiú n</w>
ju sti
fo il
Sp ain</w>
Nu mber</w>
F ocal</w>
tA igéan</w>
sh aor
rial tais</w>
ra ti
m alar
ex ecu
chuir fidh</w>
chi ve</w>
Su al
S lo
R ó
Generic Name</w>
D ate</w>
údar ú</w>
siú d</w>
am e
E ng
7 9</w>
o far</w>
har mon
dío sp
allmhair í</w>
sel f</w>
seala dach</w>
p it
mb li
lab our</w>
ic o
f ar
d é
S P
M éid</w>
Gníomh óidh</w>
F rom</w>
Brus sels</w>
teagmh áil</w>
rannchuid iú</w>
la sm
equival ent</w>
0 1</w>
susp en
imp act</w>
a qu
Eag arth
7 1</w>
sec tors</w>
olu me</w>
l is</w>
dío bh</w>
chec k</w>
to wards</w>
r inne</w>
la te</w>
iasc aireachta</w>
Asse mbly</w>
scrib ed</w>
ru le</w>
la tter</w>
grow th</w>
g air</w>
trea tment</w>
te n</w>
reven ue</w>
enti al</w>
c ei
approv ed</w>
ap e</w>
Ste el</w>
istea nna</w>
dh ío
commun ication</w>
bo ur
bh eadh</w>
Soc raigh</w>
theic n
th u</w>
publ ication</w>
n er</w>
me chan
ghabh áil</w>
fin al</w>
f ri
bhf éadfaidh</w>
fh oir
chó ras</w>
assess ment</w>
ainm n
S A</w>
O MH
Ex ecu
gnóth as</w>
ch oi
Repres enta
D H
scaoil eadh</w>
sc áile
ou th</w>
fu ture</w>
cont ent</w>
ba sic</w>
app eal</w>
achi eve</w>
G earm
C an
ch órais</w>
ce isteanna</w>
bh ea
S eoladh</w>
wr ite</w>
vehic les</w>
teicn iúil</w>
t an
separ ate</w>
p iti
f ai
entit led</w>
chr íoch</w>
G ra
Docu ment</w>
competi tion</w>
rai tear</w>
f íon
eol aithe</w>
de o</w>
c áil
ain gn
GNO ME</w>
trá chtála</w>
sub si
si gn</w>
f our</w>
em ed</w>
cir cum
T i
Chan ge</w>
Bel gi
meas únú</w>
m éadú</w>
idirdh ealú</w>
fh íor
dh earc
b rea
ao l</w>
an túla</w>
Su p
8 9</w>
se tting</w>
poten tial</w>
ph ical</w>
er r
C óipeáil</w>
ww w
itte n</w>
b ia</w>
ar aon</w>
accord ing</w>
Star t</w>
Nov ember</w>
Co al</w>
piti l</w>
li an</w>
indu stri
f av
ev en</w>
ao in</w>
V II</w>
Austri a</w>
ste orann</w>
s ite</w>
rial achán</w>
p ay</w>
ineá l
com b
c en
b reithiún
M ail</w>
DV D</w>
Cho ose</w>
Ch airt</w>
éil ire</w>
pháir tí</w>
individ ual</w>
g rea
fh éadfar</w>
b anna</w>
all ow</w>
thu g</w>
s íodh</w>
prov iding</w>
oscail te</w>
g ation</w>
det ails</w>
En able</w>
Ap pl
tempor ary</w>
o fficial</w>
opin ions</w>
ex port</w>
compati ble</w>
E G
under taking</w>
s ound</w>
m ol
gcó ras</w>
REP UBLIC</w>
seas amh</w>
or g
li c</w>
cr yp
Su íomh</w>
N eamh
L is
teach ais</w>
par ts</w>
faireach án</w>
er n</w>
cont ain</w>
ceap tha</w>
EA N
Dis play</w>
A m</w>
tu gadh</w>
t áirge</w>
inmh eán
fi elds</w>
ean ach</w>
b ack</w>
TE D</w>
Ri ghts</w>
C B
éid eanna</w>
y le</w>
tháth ú</w>
schem e</w>
transi tional</w>
18 5</w>
ra íocht</w>
oifi gigh</w>
exper i
ard ach</w>
ach as</w>
TA R</w>
LACH T</w>
oir eachta</w>
condi tion</w>
TF EU</w>
H ea
particip ating</w>
le vel
seirbhí s</w>
particip ate</w>
de emed</w>
10 .
sao thair</w>
p at
infra structure</w>
impl ement</w>
iarr th
g eal
fi t</w>
an cial</w>
Ghu al</w>
Cum asaigh</w>
w e</w>
ta tive</w>
lá raitheoir</w>
TREA TY</w>
stan ding</w>
oibleag áid</w>
cái p
ag encies</w>
TAI S</w>
Op en
L eag
le or</w>
gc inn
bec ome</w>
Réigiú n</w>
Net work</w>
IS O
t lann</w>
scann e</w>
k scanne</w>
il ire</w>
g réasáin</w>
aith í</w>
aer áide</w>
A -M
pit eal</w>
och ta</w>
gur b</w>
dem oc
d án</w>
Scri pt</w>
A irí</w>
8 3</w>
w id
u lation</w>
oiliú int</w>
m ission</w>
commun ic
chomh air</w>
ann er</w>
O st
D EC
CF AE</w>
tá sc
tionsc namh</w>
ti me
then tic
su ffici
sta ff</w>
pro bl
meas far</w>
compon ent</w>
clim ate</w>
ano is</w>
a tives</w>
Sec urity</w>
Gh n
Áir ith
thean nta</w>
l áir</w>
connec tion</w>
c aith
S eirbhí
Pri ontáil</w>
F ree</w>
óg a</w>
tea n
scrío fa</w>
par liam
m ic
iú in</w>
conduc t</w>
bu d
L IS
pr ío
D áta</w>
t in
réamh shocraithe</w>
exam ine</w>
ao is</w>
a shon
Rial acha</w>
A is
tr áth
p ic
n ess</w>
g ing</w>
di ffic
ath aoir
air te</w>
Fil ter</w>
éan n</w>
lea bhar
for ward</w>
chomh aontú</w>
Lí on</w>
Ion ad
É IS</w>
to graí</w>
Reg ions</w>
Aibre án</w>
wh ole</w>
et ings</w>
-8 859
éil eamh</w>
s i</w>
ch all
ac mh
C ateg
AR D
st ádas</w>
ir t</w>
dele ted</w>
dar á</w>
ail l
w ing</w>
p p
mharc anna</w>
lá imh</w>
circum stances</w>
Infhe istíochta</w>
Cur rent</w>
strate gy</w>
réig iúnacha</w>
recei ved</w>
ner ship</w>
integra ted</w>
con ven
at s
ad vis
Tionó l</w>
S tr
HA VE</w>
Co un
un its</w>
tuarasc álacha</w>
tec tion</w>
ion l
chomh shaoil</w>
Gre ece</w>
E L
réim e</w>
par ti
lo g</w>
gcó naí</w>
b est</w>
tré imh
de part
ná lacha</w>
ne l</w>
gcr íoch</w>
det ailed</w>
cur red</w>
F illeann</w>
D es
Ús áide
thr e</w>
pl u
ion as</w>
imh d
h er</w>
ev in</w>
effec ts</w>
K evin</w>
D á</w>
ún as</w>
mí reanna</w>
it eas</w>
iarra tas
Th at</w>
TA B
F ra
ri an</w>
r é</w>
oibríoch túil</w>
im medi
G la
mho dh
fi f
e u
dualg as</w>
cu im
c ruth
S M
IN N</w>
7 4</w>
u isce</w>
ste l
m B
leith éid</w>
eil bhí
each tas</w>
ain mh
achomh arc</w>
U ser</w>
teic neola
stel lation</w>
sprea gadh</w>
sib ilities</w>
pos e</w>
mean ing</w>
i um</w>
Ri ght</w>
M at
A im
typ e-
tran sm
re in
eid il</w>
Sub ject</w>
Sec re
ES C
. 12.
ói gh</w>
si ar</w>
re gulation</w>
po ist</w>
oiriún ú</w>
T ri
é al
v es
sa or</w>
probl ems</w>
dele te</w>
N íor</w>
Air íonna</w>
é in
sett ings</w>
la ted</w>
em ails</w>
al ter
ab led</w>
I L
Fin ancial</w>
m ob
ill ed</w>
hol d</w>
bhar nó
W indo
K e
Cu r</w>
úsáid tear</w>
sh lá
respon sibility</w>
m ary</w>
ear ly</w>
du le</w>
c at
B C</w>
independ ent</w>
feabh as</w>
ag aire</w>
Tionscad al</w>
ú ic
Í os
os p
n gnáth
iti gh</w>
d am
bh eart</w>
T Á</w>
C ri
A gh
level s</w>
le or
inter pre
f undamental</w>
d eal
wh ats
on s</w>
ghla c</w>
dt íortha</w>
críoch n
chos c</w>
appoin tment</w>
an ia</w>
T EU</w>
Swe den</w>
II -
Con stellation</w>
198 5</w>
comp any</w>
c ad</w>
airgead ra</w>
9 8</w>
se ver
inten ded</w>
ing ly</w>
chr íoch
S A
R ann
M AI
s í
pen al
mb eart</w>
comm and</w>
co ir
co -
cead aithe</w>
8 7</w>
thag ann</w>
noti fy</w>
in sc
Lan gu
sh eirbhí
re sid
pháir t</w>
out side</w>
fh oirm
e .
dra wn</w>
cr a</w>
c ineálacha</w>
alloc ated</w>
C eann
me etings</w>
lac far</w>
gair m
fé ilire</w>
ef for
dt re
Samh ain</w>
Proper ties</w>
typ es</w>
páirtea ch</w>
mh ór</w>
lea n</w>
en ter
PHOB LACHT</w>
whats this</w>
prof es
m anner</w>
indu stry</w>
con tacts</w>
as ú</w>
Eacnam aíochta</w>
tak es</w>
r ing
TI ONS</w>
Se e</w>
G ame</w>
CE BC</w>
so il
nee ded</w>
bal ance</w>
RA DH</w>
R om
199 5</w>
-8859 -
tra steorann</w>
ta b</w>
knowle dge</w>
com par
chú ram</w>
T C</w>
Minis ters</w>
éad faí</w>
d aigh</w>
cho inníoll</w>
RES ID
9 .
mh alar
ibh ialta</w>
frea gra
Loc ation</w>
F oil
sc reen</w>
ou gh</w>
le ft</w>
iste oir</w>
is sions</w>
fol áir</w>
cu spóir</w>
an ces</w>
Se ol
Off ice</w>
var i
s eacht</w>
dt eideal</w>
as s</w>
abhf aidh</w>
U ACH
In ser
FO R</w>
B ro
reo irí</w>
ec ting</w>
díol ú
bin ding</w>
IN G
Aon tachais</w>
thu air
thabh ar
is ion
io t
ESC B</w>
éif eachtaí</w>
thá ite</w>
serv ants</w>
rai th</w>
mion sonraithe</w>
contain s</w>
Scann ell
Pac ific</w>
Fin land</w>
B ur
thug ann</w>
th é
l ist
is i
dru g
correspon ding</w>
ai stri
T ac
Ac coun
- term</w>
á na</w>
m éad
h oibleagáidí</w>
d eac
T ar
N orth
20 0</w>
í r
tu re
re main</w>
n ext</w>
Tabhar faidh</w>
H u
pre vious</w>
e gu
d earbhú</w>
cho iste</w>
benef its</w>
Scannell EMAIL</w>
Plu gin</w>
E mail</w>
t oc
marke ts</w>
leith dháileadh</w>
ionann as</w>
eas c</w>
comh ordú</w>
ch ta</w>
ai t</w>
Ser vice</w>
12 1</w>
om en</w>
long er</w>
UACH TAR
Tu g
N O
sti ú
st oc
sh ip
iúl tú</w>
ch éim</w>
c ear
c au
Fin d</w>
ta obh</w>
leith rea
ge eist</w>
for e
tháirg í</w>
inclu ded</w>
gcu mh
ch eann
appro ach</w>
T ur
S ho
F eabh
EM I</w>
fhor áiltear</w>
du ration</w>
T éigh</w>
P RESID
G i
sp e
sign ature</w>
réas án</w>
riar achán</w>
milli on</w>
exam ination</w>
econom y</w>
br ing</w>
Ou t
DI R</w>
D éan</w>
C éadchéime</w>
éistea cht</w>
per c
la g</w>
im mun
ea ta</w>
co py</w>
ch il
c ul
c on</w>
bec ause</w>
aim siú</w>
T re
ph lé</w>
lt an
gcu irtear</w>
fh ion
call ed</w>
Pro v
M em
9 4</w>
thío lacadh</w>
mo ve</w>
gh lacfaidh</w>
develop ing</w>
compl aint</w>
chall en
asse ts</w>
agh as</w>
A ss
t Ard
sm all</w>
sh are</w>
rí omhair
inniú lacht</w>
fhu inneog</w>
em pow
cross- border</w>
char ge</w>
Agh aidh</w>
tú lacht</w>
mb u
hol ders</w>
gc eart</w>
dea -
be tter</w>
ac ulture</w>
S ource</w>
L U
H oriz
G r
Áirith eoidh</w>
io sca</w>
inf ring
fi osrú
ath nu
Ch omh</w>
C iste</w>
y ond</w>
tom a
ob ject</w>
excep t</w>
ag ed</w>
S am
N -
Co p
thu as</w>
M B</w>
rótac ail</w>
cru inniú</w>
b ack
al lamh</w>
ad d</w>
Ita lian</w>
ste el</w>
se n</w>
l org</w>
j ob
inn eáil</w>
gear án</w>
em ail</w>
dheimh niú</w>
bun al</w>
an s
Ion s
G al
v ers</w>
res h</w>
p an
197 7</w>
www .
suppor ting</w>
slá ndáil</w>
per man
iomlá ine</w>
g re
contin u
con ver
adjust ments</w>
B UN
type- approval</w>
so chaí</w>
propor tion
plu gin</w>
om bud
h eld</w>
Eagarth óir</w>
óc mhainní</w>
war ded</w>
o li
min u
main tain</w>
in ce</w>
compl ete</w>
bun úsacha</w>
Af ter</w>
ost aithe</w>
maj or</w>
inn í</w>
id ence</w>
geogra phical</w>
dh o
cho inníollacha</w>
as ach</w>
Cl ick</w>
197 9</w>
n asc</w>
dtag raitear</w>
Uas al</w>
C iúin</w>
w n
t- údarás</w>
oun d
ias achtaí</w>
h úsáid</w>
d éil
be yond</w>
M er
E asp
tos aigh</w>
sá s
sc éim</w>
ar ising</w>
C omp
trí na</w>
re main
nai dh
in ary</w>
govern ed</w>
em p
ch únamh</w>
ath chóir
proper ty</w>
pl ean
oper ate</w>
op tions</w>
in stal
gni fic
fadh banna</w>
Fe bru
Eorp aí</w>
B al
th i</w>
ré itigh</w>
depart ments</w>
Bh í</w>
é isí</w>
án aí</w>
in sí</w>
addres sed</w>
Th ose</w>
saor ánach</w>
reco gni
luach anna</w>
leanú int</w>
inv esti
devel op</w>
ainmh ithe</w>
TE R
On ly</w>
I EA</w>
saf egu
exce e
chu spóirí</w>
c olumn</w>
n Airí</w>
mu ir
m ac
fhor áil</w>
eis c
ec .europa.eu</w>
F A</w>
su im</w>
rá iteas</w>
r ural</w>
agre ed</w>
ún aithe</w>
scienti fic</w>
p ing</w>
f í</w>
f act</w>
dis pu
ab ilities</w>
áin ig</w>
r saí</w>
neamhbh ailí</w>
institu tional</w>
dis cu
cons ist</w>
c ard</w>
ar ís</w>
S EC
Des k
t ai
soci ety</w>
ic s</w>
f oirm
eilleag ar</w>
bli antúil</w>
Tos aigh</w>
Lea gan</w>
Feis irí</w>
teicn iúla</w>
sábh áil
spec ts</w>
lif e</w>
bre ith</w>
Th eideal</w>
R É
Fr ain
x im
ti mp
tag airt</w>
sti ll</w>
sion al</w>
prac tice</w>
p ack
oiliú na</w>
gh out</w>
cre id
MAI DIR</w>
Ex port</w>
4 0
uir thi</w>
u al
transf er</w>
si gnific
reg ular</w>
oir eacht</w>
nai pe</w>
isc í</w>
ic k
f all
ec h</w>
dhu l</w>
comh shaoil</w>
ci vil</w>
ch or
L im
C V
di o</w>
T á
Fr ance</w>
Febru ary</w>
- General</w>
ta x
sp eic
pla te</w>
ngnáth nós</w>
g a
ch abhair</w>
S eol</w>
u d</w>
to isc</w>
spec ies</w>
invol ved</w>
gl obal</w>
complain ts</w>
_ L
Ch éad</w>
transp ar
subsi di
mis sions</w>
loc ation</w>
list box</w>
isc o</w>
iar ies</w>
elec tr
dlú th
With in</w>
Cru ach</w>
un ion</w>
thr aithe</w>
neamh -
mo dh</w>
l éi
f eas
To olbar</w>
In valid</w>
Ghn íomhaireacht</w>
Cust om</w>
199 6</w>
tion ed</w>
sh á
m ram</w>
g g
ess ential</w>
e isiú
F F</w>
CO UN
B ar
A-M _BAR_
táirg eoirí</w>
ta íonn</w>
opportun ities</w>
noti fied</w>
g luais
fh i
E m
COMH AON
C ro
we b
re -
il le</w>
d ó
comh chuibh
al tai</w>
S end</w>
Develop ment</w>
A S
8 4</w>
thu illeadh</w>
s imp
inter view</w>
bháid each</w>
199 7</w>
toma tically</w>
t aithí</w>
st ud
lai m</w>
es ted</w>
comh lach
author ised</w>
ái tiúil</w>
shain iú</w>
sec tion</w>
se isiún</w>
s untas
ref er</w>
leith ligh</w>
eang a</w>
dh eireadh</w>
d ings</w>
curren tly</w>
cer ti
CH ON
8 1</w>
é isc</w>
saor ánaigh</w>
s impl
pl ann
lu aithe</w>
e st
com ing</w>
co de</w>
ce l</w>
a de
Sta tus</w>
Ch inneadh</w>
Bo ok</w>
t Airteagal</w>
on es</w>
d ou
c ead</w>
bhain istiú</w>
alloc ation</w>
aith eoir</w>
RE S</w>
130 3</w>
wr itten</w>
ta x</w>
próis eas</w>
manag ing</w>
ist ory</w>
gn éithe</w>
de scription</w>
án acha</w>
ola mh</w>
grú paí</w>
feidhm eanna</w>
en jo
eirm eoirí</w>
comh lacht</w>
UACHTAR ÁN</w>
omh nú</w>
n gníomhaíochtaí</w>
indic ators</w>
il eáin</w>
eag a</w>
ea sc
dis play</w>
Ser ver</w>
AG RE
10 9
w omen</w>
ul s
metho ds</w>
len ic</w>
h a
guarante e</w>
c ainn
M eas
Hel lenic</w>
soc rú</w>
mo de
l áin</w>
excep tion</w>
doicim éad</w>
d r
A mh
th us</w>
p ionó
ma olú</w>
lac k</w>
iom arc
dtug tar</w>
chui de
B a
marke ting</w>
ghluais eacht</w>
farm ers</w>
cont aining</w>
co it
b il
acc ord</w>
LIS H
Frea stalaí</w>
Am ach</w>
ái le</w>
reith eamh</w>
gu e</w>
f our
dh ro
d om
carr ying</w>
b ri
a tion
Tran s
8 6</w>
sub stain
offic ials</w>
imh ne</w>
categ ory</w>
bh air</w>
arth as</w>
T H</w>
G réasáin</w>
Fe der
Execu tive</w>
E l
Co m</w>
uimh ir</w>
sti tiú
leibhé il</w>
di versity</w>
ch eist</w>
STI TU
r anna</w>
n úic
f ont</w>
an c</w>
S tru
I úil</w>
ES TAB
sta l</w>
sim il
se e
qu er
g nó</w>
bh ain</w>
R ea
Pre vious</w>
Inser t</w>
ESTAB LISH
E EA</w>
C láraitheoir</w>
ú chán</w>
óg áil</w>
éigean tach</w>
m en</w>
ico de</w>
appropri ations</w>
P lay
P OR
Oifi g</w>
D U
w ine</w>
t op
pop ulation</w>
h idir
commit ments</w>
c eil
HI GH</w>
Ch ó
C é</w>
Ar e</w>
trom chú
to ol
itte es</w>
feabh saithe</w>
comp ens
Govern ors</w>
F éilire</w>
ta base</w>
reachta íochta</w>
justi fied</w>
i ol
i am</w>
e sts</w>
chan ged</w>
chai teachas</w>
b s</w>
an ta
Lis bon</w>
9 9</w>
spec i
perc enta
esti ma
empow ered</w>
be g
ag allamh</w>
Ti ocfaidh</w>
C ead
throu ghout</w>
por ting</w>
o il</w>
is eacha</w>
infhe istíochta</w>
feithic lí</w>
c are</w>
bharnó irí</w>
benefic iaries</w>
9 66</w>
tá sc</w>
trád ála</w>
si theach</w>
re new
ath anna</w>
F E
C isco</w>
tea r
inniú lachtaí</w>
bain istiú</w>
ag us
L íon
L AR
Gh inearálta</w>
F ont</w>
í ú</w>
rian gh
fhaigh eann</w>
fh abh
co throm
ch istí</w>
aithean tas</w>
a -
M árta</w>
Feidhm iúcháin</w>
Cl iceáil</w>
scri pt</w>
reachta cha</w>
ran ge</w>
ord ers</w>
fi ú</w>
comh líonadh</w>
a verage</w>
E agra
197 5</w>
tho sca</w>
protec ted</w>
nu clear</w>
int i</w>
crim inal</w>
ac tual</w>
ab airt</w>
TR AC
Fu inneog</w>
F ran
Danmhair ge</w>
201 5</w>
é ard</w>
sho wn</w>
ob tained</w>
multi annual</w>
f resh</w>
daon lath
cl eachtais</w>
c óir</w>
bhé al</w>
Ch eannais</w>
Ac tion</w>
sen ten
ploy ment</w>
earr áid</w>
dh aon
Z o
M ód</w>
sub stan
liú cháin</w>
immedi ately</w>
dti ocfaidh</w>
chúr s
vie ws</w>
ta dh</w>
lasm uigh</w>
hea ding</w>
f ad
d en
bhf éadfar</w>
ard ú</w>
S an</w>
Prov isions</w>
PRESID ENT</w>
Cu id</w>
A on</w>
197 2</w>
tar ge
s ent</w>
mhí niú</w>
iz ed</w>
en tered</w>
employ er</w>
consum ers</w>
aibid l
Presid ents</w>
P ort</w>
Aon air</w>
w aste</w>
ti p</w>
rea son</w>
rea m
ra ítear</w>
mar a</w>
m air
fh ó
charac ter</w>
c li
bhfeidhm iú</w>
ar ity</w>
S co
CON TRAC
CON ARTH
recogn ised</w>
mu tual</w>
i red</w>
c ultural</w>
bh adh</w>
b ai
aon tachas</w>
achiev ement</w>
M IN
I P
Cer tificate</w>
simil ar</w>
cas t</w>
aqu aculture</w>
GN U</w>
Feabh ra</w>
E mp
CH OMH
Belgi um</w>
tw are</w>
tre oracha</w>
th or</w>
ri osca</w>
o th
is éid</w>
experi ence</w>
cu mars
bh forálacha</w>
a _</w>
Mess ages</w>
AON TAIS</w>
v olume</w>
tag óir</w>
retur ns</w>
fol ders</w>
di osca</w>
cú ram</w>
chomh rac</w>
Cinn fidh</w>
Aith ean
tu aithe</w>
tr eala
treala mh</w>
spec ify</w>
m éideanna</w>
h earraí</w>
ei r</w>
effici ent</w>
co ding</w>
c istí</w>
achiev ed</w>
Langu age</w>
Gh nóthaí</w>
F R
Ch aibidil</w>
199 1</w>
á it
ver y
t éis</w>
succ ess
ol a</w>
f ea
aon aid</w>
H eill
Cl ó</w>
7 8
199 4</w>
tre oirlínte</w>
sa tis
l Ã</w>
h an
g la
f ying</w>
f rith
f an
el ements</w>
ap er</w>
W id
N ational</w>
territor ial</w>
sup plem
su per
om par
mon ar
it self</w>
ineál cheadú</w>
dis c</w>
de signed</w>
d -
co hesion</w>
aisc eadh</w>
PH ÁIR
4 -
199 0</w>
thré imh
suffici ent</w>
sel ves</w>
repres enting</w>
r un
in ed</w>
h eagraíochtaí</w>
e Ã</w>
dh óth
comp uls
com pr
S E
Pr íomh
B reithiúna</w>
tor adh</w>
lú th
isiú in</w>
inn ing</w>
gran ting</w>
bhf éadfadh</w>
am er
PAR TIES</w>
EAR BH
CONTRAC TING</w>
B M
v ac
ul a</w>
sá rú</w>
ra b
p ea
oiriú nuithe</w>
nó th
lé as</w>
is tithe</w>
imeá d
ghn áth</w>
d anna</w>
crea t</w>
ag ain</w>
a b</w>
G I
Atlan tic</w>
úsáide ora</w>
ys is</w>
direc tives</w>
cour se</w>
Slá ndála</w>
Li osp
IN N
ver ing</w>
ug us</w>
strai téis</w>
na sc
im thosca</w>
fi on
b la</w>
Jud ge</w>
197 6</w>
s ealbh
over all</w>
lip board</w>
integra tion</w>
h imeachtaí</w>
cu t</w>
ar ily</w>
applic ant</w>
T ea
Chu id</w>
Ain m
AI GH</w>
un g
sc ale</w>
on adh</w>
me án
ke y
bhf aigh
ar chive</w>
TI ON
S tras
S k
Manag ement</w>
ESTABLISH ING</w>
C omhair
éifeach túlacht</w>
ái tiúla</w>
trád áil</w>
tháth aithe</w>
marg aí</w>
initi atives</w>
g ame</w>
enh anced</w>
defin ition</w>
av oid</w>
J av
B aile</w>
tra di
t Ã</w>
rí omh</w>
net works</w>
mem o</w>
for ec
develop ed</w>
a spects</w>
S ME
M ó
Con nec
AN D
s n
remo ve</w>
onnea gar</w>
do wn
I om
EACH T</w>
ú lacha</w>
m m</w>
liú chán</w>
f am
dréacht bhuiséad</w>
categ ories</w>
_ F
Mar c
Liosp óin</w>
Co inbhinsiún</w>
C las
lo ans</w>
lo ading</w>
la w
e holders</w>
as signed</w>
ar s
Uimh ir</w>
T é
Stras bour
Se p
P R
tar iff</w>
tag artha</w>
standar d</w>
n íl</w>
im ages</w>
grú pa</w>
do bhar
ch áil
Lo ading</w>
D EARBH
C luiche</w>
B ul
é ic
ái gh</w>
tea d</w>
t ábh
streng then
ro w</w>
oi c</w>
instru ment</w>
gcomh líonadh</w>
comh pháirteach</w>
Secre tar
Representa tive</w>
North ern</w>
E ol
COMHAON T
Bun reachta</w>
stoc ks</w>
iniúch óireachta</w>
eo ch
b or
Nó s</w>
Lí ne</w>
tabhar far</w>
or u
neamhspleá ch</w>
lu í</w>
in vi
fh eithic
es p
t ábhachtach</w>
sain ithe</w>
me oidh</w>
lig ean</w>
eagr ú</w>
breithiún as</w>
ag airt</w>
_ Re
O ileáin</w>
DEC LAR
tháirg eadh</w>
stor age</w>
ro ss</w>
pl an
el ected</w>
diffic ul
b ailí</w>
We b</w>
S íos</w>
orig in
om ra</w>
mu irí</w>
gcomh théacs</w>
tos aíochtaí</w>
lea d</w>
in c
de sk
Strasbour g</w>
Sean Airteagal</w>
S ingle</w>
CONARTH ACHA</w>
us ted</w>
stór áil</w>
pri or</w>
m er
lí n</w>
gC iste</w>
f ail
b y
ai me</w>
abs ence</w>
L io
ur g
sta tis
industri al</w>
fin ance</w>
eal aithe</w>
dói gh</w>
cl ú
ar i
aoin ithe</w>
Vi deo</w>
Direc tors</w>
B arra</w>
us ers</w>
th íos</w>
reser ve</w>
quer or</w>
produc ed</w>
om e
oib ri
iste red</w>
high er</w>
cho thú</w>
cheang ail</w>
TA S</w>
C D
Í ON
them selves</w>
se min
h acmhainní</w>
f ada</w>
dhro im</w>
chomh aid</w>
Sep te
Re gulations</w>
L ab
F undamental</w>
3 1.
Í silt
tea gh
produc er</w>
gníomhair eachtaí</w>
exis ts</w>
b reith
T em
thentic ation</w>
t Uasal</w>
spec ial
def ine</w>
Ar na</w>
táirg the</w>
th ing</w>
sever al</w>
sc é
s- General</w>
s h</w>
reduc tion</w>
li th
consum er</w>
consi der</w>
chuide oidh</w>
athaoir leach</w>
aith n
ail t</w>
accep ted</w>
Sy n
S U
H elp</w>
tas c</w>
senten ce</w>
rea l
no te</w>
in vest
Tr í</w>
C AE</w>
á thr
sprioc anna</w>
profes sional</w>
m áil</w>
iom aíochta</w>
bra th</w>
b eartaithe</w>
Par agra
O S
L eabh
éir igh</w>
ro ad</w>
rea ding</w>
milli ún</w>
mar itime</w>
m eanna</w>
im re</w>
for áil</w>
ev ents</w>
ell ing</w>
ch un
associ ation</w>
aon taithe</w>
am end</w>
ach tar</w>
SS L</w>
Breis eán</w>
AGRE ED</w>
sub sequ
sheach aint</w>
requ ests</w>
form ity</w>
c aidreamh</w>
bhre is</w>
T ra
Ri ail</w>
tré dhearc
shu íomh</w>
oper ators</w>
negoti ations</w>
dialo g</w>
contain ed</w>
Septe mber</w>
P assword</w>
G e
te oir</w>
se ek</w>
mail le</w>
in put</w>
h ionstraimí</w>
crea tion</w>
cei thre</w>
ai och</w>
M ion
Bh ru
198 9</w>
infring ement</w>
exp ir
M al
L á
Ions áigh</w>
oib reoirí</w>
m é</w>
in menu</w>
h ion
h im</w>
h ead
effici ency</w>
dh ú
chec ks</w>
G rúpa</w>
Desk top</w>
Com pl
. 3</w>
func tions</w>
exclu ding</w>
confi guration</w>
c eannais</w>
ass is
aon ad</w>
K ey</w>
Europ ol</w>
ER AL</w>
A P</w>
toc ols</w>
t y
lucht aigh</w>
four th</w>
bhfi anaise</w>
b onn</w>
D F</w>
s ta</w>
rth aisce</w>
bre is
arm a</w>
ar tic
ag ing</w>
S ei
P al
íos ta</w>
án acht</w>
transla te</w>
s tak
ob tain</w>
ndéan ann</w>
domh anda</w>
compan ies</w>
chu spóir</w>
aisghair the</w>
Tu air
Ta b</w>
Se oltaí</w>
Pro tection</w>
N AI
Gl an</w>
Chu ige</w>
197 8</w>
t i</w>
state ment</w>
náisiú nach</w>
gníomh óidh</w>
gh rúpa</w>
g as</w>
co súil</w>
Si gn
Feder al</w>
Ch earta</w>
ál ach</w>
t airg
inch urtha</w>
ill s</w>
gc eann
foc us</w>
eacht ain</w>
dlíth iúla</w>
dis pos
deci ded</w>
Zo om</w>
Re port</w>
H aving</w>
Fh r
manufac ture
in listbox</w>
h and</w>
fh ad
es sed</w>
contribu tions</w>
b ith
anal ysis</w>
P e
Lin k</w>
w ide</w>
u ath
teang acha</w>
sta tu
sh láin</w>
oi ge</w>
job s</w>
fai de</w>
com pu
ade qu
a tr
R E</w>
tag óirí</w>
ph ríomh
or ded</w>
fin ds</w>
eisiú int</w>
e f</w>
déil eáil</w>
d eal</w>
arasc áil</w>
B er
0 2
ún ais</w>
val id
thar chur</w>
ru n</w>
prog res
fil ter</w>
d earbh
cos c</w>
caighde áin</w>
buiséad ach</w>
SME s</w>
ID EA
E och
íomh ánna</w>
thr íú</w>
s aid</w>
per m
mo ved</w>
gco inníollacha</w>
bhf rea
bene fit</w>
aisc eart</w>
a ded</w>
Th ar
N- Z
H e</w>
EU RES</w>
EORP AIGH</w>
uir lisí</w>
r imh</w>
pl ean</w>
na íonn</w>
forc ement</w>
d álaí</w>
author isation</w>
aith eacha</w>
Portu gu
N U
Manag er</w>
Kon queror</w>
DO M</w>
D own
COMHAONT Ú</w>
ú is</w>
thi ocfaidh</w>
olu tions</w>
n or</w>
f aigh
coth rom</w>
ban k</w>
aing ean</w>
a w
W r
TI THE</w>
Á L
uni form</w>
sta bility</w>
program ming</w>
ne oidh</w>
n ine</w>
j ustice</w>
ite ms</w>
it ear</w>
ion straim</w>
dh ea
con sequ
comh bheartas</w>
cai pitil</w>
airg ead</w>
Teagmh álacha</w>
Parlaimin tí</w>
L ei
Gearm áine</w>
Déan tar</w>
vel y</w>
sc il
s end</w>
oideach ais</w>
naidh me</w>
log ánta</w>
l i</w>
g airt</w>
co al</w>
as ta</w>
Ríomh phost</w>
L S</w>
Ita ly</w>
tool tip</w>
sin ce</w>
pl ain</w>
n ect</w>
mbu iséad</w>
de vice</w>
Mar k</w>
Advocate s-General</w>
9 7</w>
v eill
veill ance</w>
under take</w>
s eacha</w>
modi fied</w>
forec ast</w>
ar ies</w>
al ities</w>
a c</w>
L O
D ial
Bun úsacha</w>
th rea
observ ations</w>
issu ed</w>
infhe istíocht</w>
financ ed</w>
f is
ei lim
challen ges</w>
ch ri
c all</w>
T asc
Pre view</w>
tu p</w>
sup p
representa tive</w>
recei ve</w>
par laimin
nd er
ir eacht</w>
hu athoibríoch</w>
expl oi
eag ar</w>
e. g</w>
aif ead
S _
Por taing
In stitiú
ó ta</w>
táirg eadh</w>
ord aithe</w>
oibr íocht</w>
nor mal</w>
increa sed</w>
f olamh</w>
employ ed</w>
each ar</w>
chinn tiú</w>
charac ter
be half</w>
Rem o
In stitu
Eng l
vó tála</w>
to ol</w>
sao l</w>
oun g</w>
iarra cht</w>
ghníomh artha</w>
eval u
dro ch
di fr
cho throm
b it
air c</w>
S na</w>
Al t</w>
pr us</w>
percenta ge</w>
citiz en</w>
Portugu ese</w>
N ou
D Ó
CV S</w>
CE FA</w>
per form</w>
n omin
is sion
inquir ies</w>
geal ltan
gc eann</w>
enjo y</w>
dhlí th
deimh niú</w>
d áil</w>
chu l
T or
Ph one</w>
ISO -8859-
Cust oms</w>
respon sibilities</w>
rach taí</w>
r án</w>
pro gram</w>
pres er
f ir
da ted</w>
ach ar</w>
22 7</w>
11 1</w>
u se
su gar</w>
re si
import ance</w>
il bhliantúil</w>
iasc ach</w>
iar bh
conf ir
comm ittees</w>
char ges</w>
anail ís</w>
Sc agaire</w>
H ide</w>
Bhru is
7 -
thaisp eáint</w>
technolog ical</w>
sea t</w>
scri p
p ass
on ic</w>
mo ladh</w>
mi ght</w>
leor dhóth
ig iú</w>
f air</w>
dtabhar far</w>
de iseanna</w>
Réamh amharc</w>
Gre ek</w>
Ais ghair
á ch</w>
to -
sy mb
reg istered</w>
phróis eáil</w>
numb ering</w>
modi fications</w>
ma k
leath ach</w>
i ed</w>
feithic le</w>
es sive</w>
eil bh</w>
deleg ation</w>
consist ent</w>
con formity</w>
bhre ise</w>
V ER
Teagmh áil</w>
P ost</w>
EI S</w>
D E
C ard</w>
Éir inn</w>
w ser</w>
o bh
n -</w>
m pl
la test</w>
la ter
expir y</w>
ex ist</w>
er eas</w>
dlíth iúil</w>
design ated</w>
clas si
Sup port</w>
Ph o
L AI
C eang
Abh có
éig in</w>
te oirí</w>
riachtan as</w>
ord ing</w>
oiriú nach</w>
oifig í</w>
ndéan amh</w>
l ag
eo ireachta</w>
effec tiveness</w>
b íonn</w>
Cy prus</w>
197 3</w>
tArd Údarás</w>
réas ú
phrionsab ail</w>
on ts</w>
luais ín</w>
frea stal</w>
ed oms</w>
comple ted</w>
co imhd
chl ú
T ei
M AR
tionsc ail</w>
shonra cha</w>
sh ort</w>
s ócmhainní</w>
pháir tiú</w>
minu tes</w>
mb eartas</w>
in spec
ice -
iarra chtaí</w>
d a</w>
chul tú
b Parlaimint</w>
acmh ainn</w>
tar get</w>
sc ag
requi res</w>
pr im
h t
eá la</w>
di a</w>
d óidh</w>
comh leanúnach</w>
bh ra
allmhair iú</w>
aidh meanna</w>
Fo inse</w>
lin k</w>
fé ach</w>
fhion raí</w>
eic n
cú iseanna</w>
ag u
S tra
S C</w>
Parliam ents</w>
28 .
éagsú lacht</w>
tre on
reach túla</w>
out put</w>
improv ing</w>
fulf il</w>
ea tar
cu rement</w>
consul t</w>
constitu tional</w>
L eith
G ná
úsáide oir</w>
ú in
ú dar</w>
ÍOCH T</w>
y cl
ríomhair e</w>
pl ans</w>
l eacha</w>
gcomh altaí</w>
comh sheas
c ion
beg inning</w>
TE IDEA
Sh ort
Se a</w>
S ú
sain eolaithe</w>
rú n</w>
re ci
ras h</w>
our s</w>
onnea gair</w>
mbun aítear</w>
d re
Mo de</w>
Me án</w>
G nóth
E very</w>
Airgead ais</w>
15 7</w>
údar aithe</w>
ói ge</w>
we e
w i
stak eholders</w>
re duce</w>
ra p
quo tas</w>
metho d</w>
ile ges</w>
de posi
chomh ordú</w>
Frain ce</w>
Bh ord</w>
199 8</w>
w s-
timp eal
th áinig</w>
r acy</w>
ist íochtaí</w>
impor ted</w>
if ication</w>
desk top</w>
de lay</w>
connec ted</w>
cl os
amh ras</w>
R EA
Nor th</w>
I P</w>
E X
CH U
Br it
Bhruis éil</w>
Accoun t</w>
30 0</w>
thionsc ad
por ted</w>
inte gr
grea ter</w>
ex em
enter pr
ear nálacha</w>
bhain fidh</w>
Pol and</w>
Lo g</w>
Brea taine</w>
14 0</w>
subsidi arity</w>
si vely</w>
promo tion</w>
p ed</w>
p ath</w>
on -
mu in
lea sa
l on
ke ep</w>
exp ected</w>
ev idence</w>
bh ai
b íodh</w>
b io
amend ment</w>
23 8</w>
tos aíochta</w>
su ite
comhair le</w>
candid ate</w>
buil ding</w>
app lies</w>
airg id</w>
Go bharnóirí</w>
Engl ish</w>
Ch éadchéime</w>
ÍON N</w>
z ed</w>
she et</w>
f onn</w>
expres sed</w>
eice álacha</w>
dh chaí</w>
deci des</w>
de fic
cons ent</w>
anc el
ac compan
Tug ann</w>
KD E
ver t</w>
sta íonn</w>
se ven</w>
resid ence</w>
pre ven
mh éad
eatar thu</w>
dí rithe</w>
cr íoch</w>
comh tháite</w>
chomh lachtaí</w>
Uachtar áin</w>
Con tro
A _
thar la</w>
siú cra</w>
posi tions</w>
perio ds</w>
on to</w>
om en
ng air
i ally</w>
constitu te</w>
commit ment</w>
comhré ireachta</w>
an te</w>
T óg</w>
T ru
S ol
K ING
Ch iste</w>
C lear</w>
ARD PHÁIR
st ore</w>
so chair</w>
os aint</w>
ndéan faí</w>
li ving</w>
ir each</w>
im posed</w>
em e</w>
eidh m</w>
ec ts</w>
ec tive</w>
R ename</w>
Q U
F aire</w>
Cr íoch
Chomh aontú</w>
7 3
17 9</w>
sub scribed</w>
so on</w>
requ ested</w>
recogni tion</w>
mob ility</w>
mheas ta</w>
identi fied</w>
fh illteán</w>
dec ision
consum ption</w>
Tabhar far</w>
En viron
B íonn</w>
30 2</w>
tion ally</w>
st yle</w>
siú l</w>
s ources</w>
r ul
quo ta</w>
offic es</w>
in de
in -
i tions</w>
distribu tion</w>
compon ents</w>
cho ose</w>
ata dán</w>
alter na
T Ã</w>
Im eachta</w>
Ci vil</w>
vo ting</w>
strengthen ing</w>
reg ion</w>
náisiú n
mo un
ful fil
c a</w>
ac ross</w>
T al
Le ft</w>
Confi guration</w>
0 5</w>
tásc airí</w>
ship s</w>
ra p</w>
ea se</w>
e in
U TF
I T</w>
CHON RADH</w>
10 7</w>
tréimh sí</w>
theicn iúil</w>
soil éir</w>
rocht ana</w>
li on</w>
increa sing</w>
eilbhí n</w>
dho icim
dh óigh</w>
d uly</w>
cum as</w>
con radh</w>
c lipboard</w>
Cl ó
C ap
Air de</w>
re gu
prepar ation</w>
ound ation</w>
orig inal</w>
oi liú</w>
n aisc</w>
gnóth ú</w>
gc aitheamh</w>
fi x</w>
ei c</w>
choit eann</w>
Th reoir</w>
R ap
O ne</w>
IB H</w>
27 .
t onn
st -
p rec
oil te</w>
le m</w>
l ra</w>
h y
Sel ection</w>
L ine</w>
A D
10 5</w>
t air</w>
mh ach</w>
gn ó
ghnóth ais</w>
ci ú</w>
M hu
Is lands</w>
spri oc</w>
rec ru
leic treon
g í</w>
co st</w>
ba c</w>
al i
V III</w>
Nó ta</w>
M ulti
Á N
u aidh</w>
tean nta</w>
suspen sion</w>
s av
produc ers</w>
iarbh ír</w>
for warded</w>
en su
dialo gue</w>
dh ré
assis ted</w>
S T
Líon ra</w>
Leabh ar</w>
IM AP</w>
Fé ach</w>
E ast
Con tacts</w>
B lu
Ath ainm
ARDPHÁIR TITHE</w>
8 a</w>
ú r</w>
y oung</w>
teach ta</w>
sk ills</w>
sh onraí</w>
sh oláth
se a</w>
res ource</w>
pro per</w>
or i
mhea sa</w>
is is</w>
ion ta
int inn</w>
h Airteagail</w>
e quality</w>
cun tais</w>
ach an</w>
R ach
F H
C z
10 4</w>
É ire</w>
pre -
oc ail</w>
neamhspleá chas</w>
n ers</w>
lin ked</w>
fall ing</w>
e oige</w>
cói p</w>
cho sen</w>
Pr in
O ver
O per
N Ã</w>
G reat</w>
EORP ACH</w>
DÓ IBH</w>
Bain isteoir</w>
Abhcó idí</w>
198 1</w>
t eidil</w>
staid éir</w>
páir tí</w>
perman ent</w>
ng ear
later al</w>
exper ts</w>
c an
T ask</w>
S of
MI ME</w>
Gh earm
G D
F ad</w>
F E</w>
E P
Ab out</w>
sc ar</w>
pre vention</w>
investi g
inn iúil</w>
develop ments</w>
deb t</w>
cl ick</w>
ath raíodh</w>
at án</w>
Spá inne</w>
Bain fidh</w>
B O
10 9</w>
tuair isc</w>
th ea
st ination</w>
sp ar
polai tiúla</w>
ith u
gcomhlíon ann</w>
eil ge</w>
dí l
cu p
cha omhnú</w>
We b
Per son
O P
N asc</w>
us es</w>
technolog ies</w>
strateg ic</w>
lar ge</w>
imir ce</w>
h er
gníomh ach</w>
ar ound</w>
Sain cheaptha</w>
Lu ach</w>
H igh
ES I</w>
Ch órais</w>
rial tas</w>
phrionsab al</w>
nó far</w>
infhe istíochtaí</w>
d teannta</w>
cru innithe</w>
cre dit</w>
S wit
P i
O ir
Cu im
A D</w>
y et</w>
v ol
transla ted</w>
tom atic</w>
th acht</w>
si bh
sc ála</w>
ríomh phoist</w>
ri g
pre view</w>
iú lacht</w>
gcuir eann</w>
foir ne</w>
di d</w>
d eis</w>
cul tú
bli anta</w>
associ ated</w>
U ng
T im
Stiúrth óirí</w>
No te</w>
Del e
C ealaigh</w>
Brit ain</w>
12 7</w>
w ish</w>
to ols</w>
rú nd
mat ching</w>
m y</w>
ion tráil</w>
go ing</w>
d ai
b Prótacal</w>
accep t</w>
Wh at</w>
U nder
Tasc anna</w>
ús ach</w>
ó idí</w>
struc tures</w>
ster n</w>
se ol
scil eanna</w>
réas únaithe</w>
pr á
o in</w>
núic lé
mil k</w>
m ach
lá r
l o</w>
k er</w>
irtea nna</w>
iom aíocht</w>
inter ven
in come</w>
feidhm chlár</w>
eola íoch</w>
earn adh</w>
ear ch
compl em
coll ection</w>
coimhd eachta</w>
cen tra
Thar la</w>
T LE</w>
Stra te
Marc áil</w>
BM anna</w>
tomhal tóirí</w>
tar aif
sur veillance</w>
s Ã</w>
pháirtea nna</w>
o th</w>
mh eán
meast óireacht</w>
declar ed</w>
chomh chuibh
al co
TEIDEA L</w>
Ch r
vac an
under taken</w>
sh e</w>
olog ical</w>
l earn
h in
gc inneadh</w>
dta bhairt</w>
deon tais</w>
amh airc</w>
a ud
P G
D iosca</w>
CU ID</w>
use ful</w>
s eilbh</w>
re vision</w>
inmheán acha</w>
i ary</w>
encour age</w>
au tomatically</w>
Wor k</w>
U p</w>
H ome</w>
C aith
B us
Aithean tas</w>
wid th</w>
un known</w>
téarm ach</w>
sit u
signific ant</w>
seach tracha</w>
phr agh
onnmhair í</w>
n ró
líon ra</w>
it y
ist ant</w>
interpre tation</w>
idir thréimh
i ii</w>
ghair m</w>
entr e</w>
dú il</w>
consider ation</w>
Lim ist
15 0</w>
12 6</w>
z one</w>
ré im</w>
mh ar</w>
m or
i ble</w>
deli ver</w>
d aí</w>
contro ls</w>
con as</w>
com position</w>
ain éal</w>
PAR T</w>
Inter net</w>
F BManna</w>
D one</w>
Co th
ul l</w>
spe ed</w>
schem es</w>
oper ating</w>
ob taining</w>
n íor</w>
lá nú</w>
ind ent</w>
i .
eacht ála</w>
cr ime</w>
bh ear
all e
Ru le</w>
P E
KING DOM</w>
I te
AL L
prohib ited</w>
nd earnadh</w>
Uni t</w>
I Ú
14 8</w>
áirith eoidh</w>
ná la</w>
lo ok</w>
lei gh
ins tead</w>
h Éireann</w>
gi ving</w>
gco it
fac ilities</w>
dhlí the</w>
aff ected</w>
Jo h
Ard ionadaí</w>
te ly</w>
sim ple</w>
si os</w>
mem ory</w>
mal airte</w>
li ation</w>
id ear
h ábhair</w>
f ás</w>
exten ded</w>
comh dh
b an</w>
Re place</w>
L ithu
F a
F IN
C eap
A ist
wr iting</w>
sub stance</w>
streng then</w>
ser o</w>
p so</w>
or m</w>
io s</w>
inquir y</w>
inni dh</w>
dtre o</w>
difficul ties</w>
dhu ine</w>
athchóir iú</w>
associ ations</w>
TI TLE</w>
Rea tha</w>
Par t
Form at</w>
En cryp
Cho inbhinsiún</w>
Bra sero</w>
201 7</w>
ur ance</w>
st oc</w>
propos e</w>
on ds</w>
n iúcháin</w>
ish ing</w>
is tics</w>
esp ec
drug aí</w>
achiev ing</w>
Paragra ph</w>
N one</w>
L ast</w>
L EA
Iasc ach</w>
D isc</w>
D ealaigh</w>
ó na</w>
é in</w>
wat ers</w>
st ing</w>
sec ure</w>
le tter</w>
jo in
f ág
democ racy</w>
d acha</w>
correc t</w>
co ig
ch aoi</w>
b orders</w>
_ Oscail</w>
Or dú</w>
Mar itime</w>
Ch láir</w>
A ic
tá istí</w>
theor ainneacha</w>
rea s
re di
modh nuithe</w>
mhodh nú</w>
introduc ed</w>
independ ence</w>
gra ph
ean ta</w>
der i
dar ity</w>
conclu de</w>
concer n</w>
chó dú</w>
ai stigh</w>
ach air</w>
Th ree</w>
Sú máil</w>
Easp órtáil</w>
Co hesion</w>
COMM UNI
CI T</w>
BH R
A S</w>
s íonn</w>
gear áin</w>
en ded</w>
cho inneáil</w>
ag e
adv anta
Nou n</w>
ún adh</w>
t u</w>
proc essed</w>
pr o</w>
lé idí</w>
gra tion</w>
chru innithe</w>
book marks</w>
V ice-
T eip</w>
S top</w>
u su
ste ps</w>
st and</w>
sh ealbh
ra w</w>
phróis eas</w>
oir ead</w>
oideach as</w>
m ód</w>
leag far</w>
h ome</w>
comh oibriú</w>
ch om
Ro imhe</w>
Is teach</w>
D ON</w>
Cz ech</w>
Appl ication</w>
very one</w>
seirbhí se</w>
ol ai
o -
gran ts</w>
coit eann</w>
bu g</w>
a x
Val ue</w>
Ru d</w>
L ib
ID H
I O
Ger man</w>
EG TC</w>
Au dio</w>
ws- 12
tromchú iseach</w>
o g</w>
ic ally</w>
fiosrú cháin</w>
fhor mheas</w>
fhoir eann</w>
dhu alg
compet ences</w>
cabh rach</w>
Uir lis</w>
SI E</w>
Me eting</w>
M en
ó l</w>
w indo
se ly</w>
re ti
rai f</w>
im éad</w>
h el
en ds</w>
déan tar</w>
cói de</w>
cru ach</w>
aff ecting</w>
adequ ate</w>
_ New</w>
SI ON</w>
L ay
I THE</w>
D uring</w>
ú r
ó taí</w>
éin eacht</w>
x201 8</w>
ver ty</w>
so ic
mh on
invest ments</w>
gh u
end a</w>
dhí reach</w>
dh l
ci liation</w>
cai teachais</w>
bun aíodh</w>
atten tion</w>
ai p
Thu aisceart</w>
G U
F ionl
B ackground</w>
x201 9</w>
sibh ialta</w>
serv ation</w>
riachtan acha</w>
polai tiúil</w>
mal administration</w>
leith dh
in curred</w>
h istory</w>
fh ág
en a</w>
cabh rú</w>
ao ise</w>
L aistigh</w>
Horiz on</w>
Am ster
10 1</w>
thé arma</w>
suntas ach</w>
shao thraithe</w>
sain cheisteanna</w>
ri ail</w>
qu ot</w>
l each
fam ily</w>
eo chair</w>
ears an
dg ed</w>
consul ted</w>
ai ochta</w>
ag ency</w>
P y
At tach
10 8</w>
tionsc al</w>
th ábhachtach</w>
soláth air</w>
scé imeanna</w>
s eiceálacha</w>
re id
ra íochta</w>
o dh</w>
n dualgas</w>
min ic</w>
ist ence</w>
individ u
clas s</w>
c eangal</w>
alco ho
ad ver
Vi e
TI C
S TR
Fra mework</w>
F T</w>
Aim sigh</w>
remo te</w>
pl en
ph one</w>
p á</w>
mea t</w>
harmon isation</w>
fhoil siú</w>
espec ially</w>
críoch naithe</w>
clo sed</w>
c naipe</w>
bu g
Wh e
Lio tu
Fol aigh</w>
Cri p
Co de</w>
AIR T
- up</w>
Á bhar</w>
tairbh ithe</w>
ta sc
ta obh
mater ial</w>
mar t</w>
leath anaigh</w>
l d
is ts</w>
in stance</w>
dis semin
cuid iú</w>
K W
10 6</w>
leithrea saí</w>
im pose</w>
gc ai
el im
da íonn</w>
con centra
W e</w>
U r
TA Í</w>
St ádas</w>
Nu ashon
K .
Fhr ainc</w>
F oir
to dhchaí</w>
tionsc la
them e</w>
tea stáil</w>
sm en</w>
se ofar</w>
res olution</w>
repres ented</w>
re by</w>
ph río
part ners</w>
mh eán</w>
la ting</w>
gcoit inne</w>
ea sp
co operate</w>
T eanga</w>
S eiceáil</w>
D et
Athainm nigh</w>
ús áide</w>
ur an
stu dies</w>
scri be</w>
s r
respon se</w>
reduc ed</w>
p as
oib rith
nomin ated</w>
m l</w>
identi fy</w>
gra ph</w>
fh og
emp ty</w>
em er
dre n</w>
dhí riú</w>
c m
bh arra</w>
aim ed</w>
Un icode</w>
S im
P S</w>
L at
Clas s</w>
13 6</w>
we b</w>
tri c</w>
subm ission</w>
str ing</w>
replac e</w>
oc cup
nuála íocht</w>
manufacture r</w>
l in</w>
guarante es</w>
de mon
co vering</w>
cht ain
agric ulture</w>
To gh
S o
Mo di
M ail
Co s
Au thor</w>
éifeach túil</w>
th aisceadh</w>
t- ábhar</w>
scáile án</w>
s ín
or es</w>
nuála íochta</w>
mon itor</w>
li k
ion tr
exclu sive</w>
ess es</w>
dl eacht</w>
d éag</w>
ad vice</w>
Portaing éile</w>
L ocal</w>
Amster dam</w>
A nd
Ú dar</w>
se oidh</w>
run ning</w>
r ái
qu e</w>
la p
effor ts</w>
crea ted</w>
ath chúrs
arr ain
Su m
P s</w>
DECLAR ATION</w>
20 5</w>
12 3</w>
éi de</w>
thr í</w>
st oic</w>
rai ge</w>
prob lem</w>
ompar áid</w>
no tes</w>
men tioned</w>
mbli ain</w>
en forcement</w>
dí reacha</w>
dear a</w>
compuls ory</w>
SO L
M eabh
L ip
EI T</w>
Contro l</w>
C úirt</w>
30 .
them atic</w>
th arm
ten ance</w>
tea cha</w>
shaor ánaigh</w>
lim i
exc essive</w>
cour ts</w>
conf lic
ch la
bh ia</w>
ath air</w>
ain s</w>
acht aigh</w>
T abhair</w>
Sel ected</w>
Ré im
P N
M or
Leith ead</w>
LI FE</w>
AI E</w>
25 1</w>
z er
t reoir</w>
sub stances</w>
simpl í</w>
pre lim
play ed</w>
marg aidh</w>
lei c</w>
institiúid each</w>
e p
e e</w>
ch amb
bhs aíocht</w>
an acha</w>
TH ER
P ic
In stru
Hu man</w>
tr acting</w>
thaisp eán
omhal tóirí</w>
frea gra</w>
f ru
f acha</w>
eisc each
bh sá
agre e</w>
Ost aire</w>
F oundation</w>
thos ú</w>
th éann</w>
t Sual
sta m</w>
s or</w>
mhalar tú</w>
mea mram</w>
h Ostaire</w>
dú l</w>
consist ency</w>
cl ó
ch ais</w>
bhli antúla</w>
W EU</w>
Ríomh phoist</w>
PG P</w>
Be fore</w>
Ard rú
úsáide oirí</w>
ú in</w>
Úsáide oir</w>
teagmh álacha</w>
tairg eadh</w>
pro curement</w>
ng lac
mh uir
h en
fi onraí</w>
fh ost
en ab
dou b
ci on</w>
chinn tí</w>
c le</w>
U as</w>
Tri bunal</w>
S pri
Cuir eann</w>
vó taí</w>
tu b
shu b
mea sta
mar ine</w>
lo aded</w>
l aithe</w>
ghn áth
eil g</w>
díl se</w>
ch iste</w>
b arra</w>
b ail
X ML</w>
R ith</w>
Nor way</w>
I gn
Cum raíocht</w>
Comh pháirteach</w>
198 8</w>
ó il
tá st
se oltaí</w>
rea l</w>
on tal</w>
i ta
expres sion</w>
competi tiveness</w>
bli antúla</w>
acc es
_ Open</w>
S HA
R Ã</w>
R EACHT</w>
Ná isiún</w>
I V
13 9</w>
ói p</w>
ré ig</w>
protec t</w>
po verty</w>
li osta
is ms</w>
ile o</w>
fu arthas</w>
f er
ch ion
ch ed</w>
Plu g
E -
C istí</w>
An tar
íoc tha</w>
ts lí</w>
t oiliú</w>
re a</w>
lé as
li able</w>
kno w</w>
g éar
g ence</w>
fhrea stalaí</w>
elec tions</w>
cumh achta</w>
cu ardaigh</w>
cr isis</w>
RO INN</w>
M S</w>
G EN
F ac
Du ine</w>
ë an
ves sels</w>
t áis</w>
sum mary</w>
su m</w>
seir bh
sc eid
pos sibility</w>
it eamh</w>
h ost</w>
entit l
discu s
d ath</w>
có naí</w>
ch ruth
cep t</w>
c ause</w>
attach ed</w>
alar m</w>
ai bh
S each
Oib re</w>
Gal ileo</w>
EC U</w>
Ch osaint</w>
AIRT EAG
198 6</w>
ío sa</w>
ál far</w>
u x</w>
staid éar</w>
shar ed</w>
ref l
m ed</w>
l os
l an</w>
is iú</w>
f oun
ex istence</w>
enterpr ises</w>
ain ne
ai ghn
Sho uld</w>
Leabhar mharcanna</w>
L án
G O
Cáip éis</w>
B ri
AR TIC
29 .
ún tas</w>
tur n</w>
strateg ies</w>
st ric
reithiú nach</w>
immun ities</w>
bhsá laí</w>
athnu achan</w>
S ín
N-Z _BAR_
I X</w>
F ón</w>
F á
F ur
EAN N</w>
Ban ks</w>
BH UN
23 6</w>
w eigh
valid ity</w>
th iom
t ais
sp ás</w>
s v
reason able</w>
me t</w>
m entation</w>
lea than</w>
g al
fish ery</w>
em issions</w>
electr onic</w>
conclu sion</w>
anc ing</w>
allow ed</w>
abh ann</w>
M H</w>
E ar
DEARBH Ú</w>
te oireachta</w>
t íre</w>
t ary</w>
soli darity</w>
shao ir
rú chán</w>
rá in
rec ycl
prepar ed</w>
compu ter</w>
ch urtha</w>
advis ory</w>
W ar
Co im
15 .11.
úsáid fear</w>
v ices</w>
ung ary</w>
sábháil teacht</w>
su ib
struc tion</w>
ream aigh</w>
mheas faidh</w>
main tenance</w>
lán pháirtiú</w>
li gh
h ARDPHÁIRTITHE</w>
gc omparáid</w>
di c</w>
deli ber
P lay</w>
P an
Iasc aigh</w>
C é
5 0
12 5</w>
1 10</w>
thair iscint</w>
sy n
scáile áin</w>
re min
proportion ality</w>
mechan isms</w>
geogra fach</w>
gcomh bheartas</w>
f la
de s
d ural</w>
cú rsaí</w>
cainn íoch
b ackground</w>
Sof tware</w>
Ass istant</w>
6 0
áip éis</w>
substain tí</w>
shain aithint</w>
on ce</w>
ng leic</w>
long -term</w>
coordin ate</w>
c k
aith eacht</w>
a des</w>
Portu gal</w>
M ed
ábhach tacha</w>
tré ithe</w>
tru ail
te d
st ock</w>
sp ort</w>
repeal ing</w>
qu ar
publ ic
poin tí</w>
ma p</w>
ghlac far</w>
fra ud</w>
dhéan ta</w>
con nect</w>
comh pháirtithe</w>
ai g
L EIS</w>
ES S</w>
Airgead aíochta</w>
201 4-
13 8</w>
11 6</w>
í on</w>
unanim ity</w>
straité isí</w>
lo t</w>
ionad aíocht</w>
dispos al</w>
di gi
choi gear
character istics</w>
aithean ta</w>
Sual ainne</w>
Res earch</w>
Rach aidh</w>
N ations</w>
III- 4
I T
ta b
sta ll</w>
reg ularly</w>
pl ic
or tha</w>
len ar</w>
k ind</w>
it er
ir ing</w>
eola íocha</w>
d iúltú</w>
comh pháirtíochta</w>
comh ionann</w>
SEC TION</w>
Em ployment</w>
D athanna</w>
AIRTEAG AL</w>
Ó s</w>
tiv ity</w>
r ain</w>
n ái
n ed</w>
modh nú</w>
lik ely</w>
il legal</w>
iarratas óir</w>
enti re
ed ul
cun tas</w>
cho th
ass ist</w>
ap point</w>
al có
S TA
Form áid</w>
B ud
té am
th ír</w>
st aint</w>
ri d</w>
reg ular
m as</w>
in k</w>
im eal
fi anaise</w>
eilim intí</w>
dt os
dhí th</w>
deb ate</w>
bea g</w>
b er</w>
adop ting</w>
Seirbhí se</w>
Pu bl
MA J
M ag
Govern ments</w>
G C</w>
D eis
C A</w>
ARTIC LE</w>
12 2</w>
web site</w>
there in</w>
tair iscint</w>
rá ite</w>
penal ty</w>
innov ative</w>
f le
deir eanach</w>
cáip éis</w>
co h
Th ar</w>
LE O</w>
Fionl ainne</w>
Dev ice</w>
Can cel</w>
29 0</w>
tur ing</w>
transpar ency</w>
tharm ligean</w>
teor anta</w>
star dam</w>
reason ed</w>
on ia</w>
mh ór
iar nró
di am
dhoicim éid</w>
deac rachtaí</w>
bhre ith</w>
an y
an sin</w>
IS O</w>
Comh tháthaithe</w>
C iallaíonn</w>
Am stardam</w>
trans actions</w>
spec tive</w>
so le</w>
sain cheaptha</w>
reser ves</w>
ou ght</w>
modi fication</w>
m Ballstáit</w>
li er</w>
iom aíoch
im eacht</w>
i. e</w>
gcuir fidh</w>
er s
chomh líon
c aibidl
bhf éadfaí</w>
ad s</w>
U ser
M ol
Có ras</w>
Cu mh
C V</w>
B AN
A v
18 8</w>
12 0</w>
éad an</w>
transm ission</w>
t on</w>
rú paí</w>
proce dural</w>
gc reat</w>
f os
eo g</w>
dispu te</w>
ch ean
Windo ws</w>
Th e
J u
EUROP E</w>
Book mark</w>
An aithnid</w>
12 9</w>
x -
voc ational</w>
tos aíocht</w>
th ough</w>
soc raithe</w>
shá rú</w>
plann ing</w>
open ing</w>
m ally</w>
lean aí</w>
join tly</w>
ish es</w>
iarrth óirí</w>
iar mhair
da ítear</w>
chú iseanna</w>
ch omhair
aoir seacht</w>
Spec ial</w>
Pro tocols</w>
In te
Ch in
16 7</w>
to il
theic neola
tasc anna</w>
se cu
ol lacha</w>
cust om
comh tháthú</w>
chai piteal</w>
a h
_ n
Play er</w>
M ENT</w>
Bun reacht</w>
A T</w>
198 2</w>
tu red</w>
so ch
se l</w>
omen cla
n aoi</w>
li ber
la un
initi al</w>
inclu sion</w>
er t</w>
eas namh</w>
ean acha</w>
dt ír</w>
d á
chil dren</w>
as tal</w>
arth acha</w>
a City</w>
Ke y
I ni
D ear
Coun try</w>
C S</w>
A rab
ve ge
vacan cy</w>
ráth aíochtaí</w>
ra f</w>
r Ã</w>
prelim inary</w>
ngair tear</w>
m ó
it ary</w>
gcr íocha</w>
fi x
excep tional</w>
comhlach ais</w>
ch as
bh aidh</w>
anu as</w>
S é
M alta</w>
For ward</w>
Comh adlann</w>
B EAR
ói v
sh on</w>
se oc</w>
ro g
rec ord</w>
reach ed</w>
ra th
mak es</w>
iol free</w>
gh laim</w>
gc eang
fu inneog</w>
fh ocal</w>
dualg ais</w>
d im
comm itted</w>
comh altai</w>
ai ocht</w>
ac tors</w>
W H
T ag
I AR
Bain istíochta</w>
ú b
x y</w>
w el
so ghluais
si tion</w>
sean s</w>
seach án</w>
proper ly</w>
ph ys
li tir</w>
leas c</w>
is tigh</w>
idir ghabh
fhor b
feas ta</w>
fav our</w>
er ation</w>
enti ties</w>
communic ated</w>
cau sed</w>
bh rú
ap a</w>
EC SC</w>
E T</w>
A il
29 1</w>
áir e</w>
togh cháin</w>
tion ary</w>
reduc ing</w>
rea c
r ó</w>
opportun ity</w>
oifig each</w>
mhí chumas</w>
lo ing
li qu
h í
determin ing</w>
cháil íocht</w>
c y
b reithiúnach</w>
b prionsabal</w>
anim als</w>
ach tú</w>
Pri v
P rótacail</w>
O LA
Mon etary</w>
Mer ger</w>
23 3</w>
11 5</w>
time -
tairbh e</w>
sheirbhí sí</w>
on e
omencla ture</w>
mu ch</w>
k en</w>
in sin</w>
i fications</w>
fuinn eoige</w>
com es</w>
c í</w>
bhu ithe</w>
benefic iary</w>
ai f</w>
To ols</w>
S ibhialta</w>
MAJ ES
Lithu ania</w>
Dec isions</w>
Comm ission
Ad v
5 00</w>
18 0</w>
16 4</w>
1 ,
t ments</w>
si le</w>
shoc ruithe</w>
secon ds</w>
r s</w>
mhí nithe</w>
m Bord</w>
liosta ítear</w>
l ainne</w>
func tion</w>
eas tas</w>
domh ain</w>
ci pl
chumh achtaí</w>
c ionn</w>
c anna</w>
allow s</w>
ainne oin</w>
_ Add</w>
Whe ther</w>
Mhu ir</w>
I con</w>
Ch lár</w>
C ea
17 7</w>
thar t</w>
tair bhí</w>
simp li
propor tion</w>
numb ered</w>
leordhóth anach</w>
learn ing</w>
lean faidh</w>
le x</w>
k de</w>
is tiú
críochn aitheach</w>
cho inne</w>
as ter</w>
ar m</w>
_ Nua</w>
Wh ereas</w>
S a
Pro g
Mó ire</w>
Lab el</w>
EOR AI
EORAI P</w>
Advocate -General</w>
13 0</w>
11 8</w>
η δ</w>
v al</w>
pro duce</w>
pre hen
medi a</w>
leasa ítear</w>
lar g
gcu spóirí</w>
eigh il
e z
dhío thú</w>
ch ain</w>
calcu lated</w>
aisghair tear</w>
aingn e</w>
ab ol
Thu aidh</w>
T est</w>
St íl</w>
S V
S H
Ná isiúnta</w>
N i
F ís</w>
ES F</w>
D ES
Chó naidhme</w>
Ó S</w>
tábh acht</w>
th ógáil</w>
r ise</w>
oi bh
lucht aithe</w>
iú lt
ig n</w>
fi d</w>
f air
exploi tation</w>
eo us</w>
díolú ine</w>
chaighde áin</w>
ch ásanna</w>
bh reithiún
app ear</w>
ad adh</w>
Te or
Stru c
S tu
S m
K ar
G EA
áin is</w>
tr act</w>
stud y</w>
stiú rth
ra tic</w>
quanti tative</w>
proper ties</w>
priv ileges</w>
oifig iúla</w>
oib h</w>
mair eachtála</w>
leas mhara</w>
lea mh
h éigeantach</w>
frea stalaí</w>
execu tion</w>
do ing</w>
attach ment</w>
al a</w>
P ath</w>
L Ã</w>
L AND
J .
H e
AIR LE</w>
tu ig
ta íodh</w>
ste p</w>
s mo
roinn te</w>
rial uithe</w>
r ac
pres s</w>
oibr íochta</w>
nd aoine</w>
low er</w>
k ers</w>
hear d</w>
ear ing</w>
bun aidh</w>
anim al</w>
am p
accord ingly</w>
P references</w>
Déan ann</w>
ád ais</w>
teor ann</w>
sm acht</w>
rati o</w>
oir t</w>
mo d
mhu irí</w>
mechan ism</w>
manag er</w>
lab or
insc oilte</w>
in struc
gro und</w>
faigh te</w>
cun táis</w>
communic ate</w>
candid ates</w>
bo und</w>
bháid eacha</w>
S econ
I R</w>
Bh eilg</w>
11 4</w>
trans action</w>
ti mes</w>
tea s
st ai
repres ent</w>
pres ented</w>
parliam ents</w>
pack age</w>
lea ta</w>
is in
inter face</w>
f o</w>
exten sion</w>
díolú intí</w>
cu i</w>
constitu ted</w>
chl eachtais</w>
ch in
ceil ing</w>
c u</w>
S imp
M AN
D RA
Comm and</w>
C untas</w>
B ack
táirg eacht</w>
tain er</w>
part ner</w>
lic ence</w>
g er
fh ostaíocht</w>
con servation</w>
buil d</w>
abh rach</w>
_ Edit</w>
UR I</w>
S ME</w>
Direc tor
A rea</w>
tr aid
ro ll
replac ement</w>
pragh as</w>
n ex
lin ks</w>
la bh
impl ications</w>
hu as
hea der</w>
gC lár</w>
dré acht</w>
comple tion</w>
cat ches</w>
Tionsc ail</w>
L ev
Críoch naithe</w>
C ase</w>
thionscad ail</w>
subsequ ent</w>
shlá inte</w>
riangh raf</w>
re form</w>
mbli ana</w>
m ná</w>
lái thre
lu m</w>
loc k</w>
iarmhair tí</w>
he rein
faireach áin</w>
e qual
chomh bheartais</w>
Tuair isc</w>
Ost air</w>
CE GC</w>
Ac tions</w>
A ÍONN</w>
18 3</w>
vie w
tSual ainn</w>
sp ea
s olutions</w>
plen ary</w>
pl om
n íonn</w>
malar tú</w>
lean ann</w>
inclu des</w>
ic on</w>
i an
hol ding</w>
dobhar shaothraithe</w>
diam onds</w>
dea th</w>
da tabase</w>
chum asú</w>
an k</w>
T I</w>
Leath anaigh</w>
Fin al</w>
E GNO
D -
CS E</w>
CI AL</w>
A k
ta ítear</w>
t with
scrios tar</w>
nó taí</w>
neamh rial
imh eas</w>
gcomh ad</w>
for mheas</w>
fif th</w>
f -
emb er
cre d
as y
Up date</w>
TO CO
Ph or
PRO TOCO
ME Ps</w>
H ungary</w>
G reamaigh</w>
Con sul
CE R
Bul gar
A cho
10 3</w>
ur s</w>
tic iúil</w>
ti re</w>
shonra ítear</w>
ri l
ra ta</w>
of ten</w>
leath nú</w>
is ting</w>
i o</w>
follow ed</w>
entitl ements</w>
cumars áide</w>
b aile</w>
ac sanna</w>
_ In
Sp an
Sc reen</w>
S outh</w>
S l
Ionad aigh</w>
Iomp ór
EGNO S</w>
C tr
2014- 2020</w>
óir eachtaí</w>
ó radh</w>
there to</w>
renew able</w>
m ag
ite áil</w>
h ab
gcuir fí</w>
fail ure</w>
en ever</w>
d áin</w>
We stern</w>
To tal</w>
R io
Pro c
O C
Chin ese</w>
y ms</w>
thabhar faidh</w>
ta í
t y-
rea ds</w>
pl ug
open ed</w>
og adh</w>
mbun ú</w>
han dl
fre edoms</w>
f eirm
anal y
aisghair m</w>
ad mis
a k</w>
R íochta</w>
D easc</w>
Con air</w>
As soci
17 5</w>
á t
vis ible</w>
v ation</w>
um -
twith standing</w>
tráth rialta</w>
sustain ability</w>
su imeanna</w>
s tac
require ment</w>
lá imh
k r
herein after</w>
gh rá
gcumh achtaí</w>
fis sile</w>
di tions</w>
bre is</w>
Span ish</w>
P L
O K</w>
M ain</w>
Lei bhéal</w>
Inter national</w>
IN E</w>
Gre en
GEN ERAL</w>
F íor
200 7-
20 9</w>
11 9</w>
10 2</w>
vers eas</w>
s olution</w>
pl é</w>
phragh sanna</w>
m o</w>
in seach</w>
i at</w>
ghníomh ach</w>
fav ou
c el
all aimh</w>
_ Eagar</w>
St an
MAJES TY</w>
F RE
Book marks</w>
ACH T
su í</w>
ri on
recycl ing</w>
r eacht
process es</w>
prehen sive</w>
ph olai
oru a</w>
mho ill</w>
mheas únú</w>
li ostaithe</w>
lea ding</w>
invol ving</w>
individu als</w>
gc ru
g las
fé idear
fhog asú</w>
dl íochtaí</w>
dh earbhú</w>
c úirte</w>
ainn is</w>
Nor mal</w>
Ne p
M is
I ON
Fh ionl
19 8</w>
17 2</w>
15.11. 1985</w>
éagsú il</w>
é ire</w>
z z
thor thaí</w>
tho gh
s l
il la</w>
fh éadfaí</w>
f und</w>
f ostaíocht</w>
excee ding</w>
chaighde án</w>
chai teachais</w>
ch em
c as</w>
accoun ting</w>
abh ar</w>
_S ave</w>
Wid th</w>
Pro duc
L ait
Iod áil</w>
IL SE</w>
I M</w>
uas ta</w>
tu ally</w>
th ion
technolog y</w>
reco very</w>
pr int</w>
plean anna</w>
penal ties</w>
parliam entary</w>
nu ashon
len g
istra tion</w>
inter vention</w>
il ot</w>
har t</w>
d tús</w>
cuid eachtaí</w>
chru inniú</w>
accompan ied</w>
V is
R el
Prog ress</w>
Leas aítear</w>
L AND</w>
K P
Gná th
Con t
C IL</w>
C C</w>
- 4
Ó IR
wee ks</w>
p eo
os y
organis ed</w>
nation ality</w>
iter ran
f illteáin</w>
clu iche</w>
chomh lacht</w>
a í
_ h
S aor
Po ist</w>
Phor taing
I l
Gh réig</w>
En d</w>
Connec tion</w>
COUN CIL</w>
AN NE
12 8</w>
11 2</w>
ói f
óif íl</w>
vers al</w>
u id</w>
tr ic
tr ack</w>
thabh áil</w>
struchtú r</w>
shon rach</w>
sain iú</w>
rial úcháin</w>
respec tively</w>
oibríoch túla</w>
mu il
mode l</w>
gr ic
fhreagra cht</w>
eo il</w>
dtug ann</w>
conver gence</w>
ainm nithe</w>
Sei ce</w>
Presid ency</w>
LAND S</w>
L ex
Eol airí</w>
Direc tory</w>
Categ ory</w>
Bh eartas</w>
A gric
wh om</w>
t- ocht</w>
reg is
pres entation</w>
mhon ar
id ance</w>
h ec
ex ports</w>
el ect</w>
dú shláin</w>
dri ver</w>
competi tive</w>
acc orded</w>
Reg ion</w>
F eic</w>
3 2
- b
v y</w>
v Card</w>
th ra
s amh
oc curred</w>
nó iméad</w>
inter im</w>
iasc aireacht</w>
form al</w>
dissemin ation</w>
dis cipl
d téarmaí</w>
d teagmháil</w>
consul tations</w>
ch oir
c ra
bain istíocht</w>
ann ú</w>
aist e</w>
ai ms</w>
ag allaimh</w>
ag ainn</w>
ach o
Sum mary</w>
Spá inn</w>
Reg ional</w>
Re f
I RE
H ere</w>
G lacfar</w>
DRA FT</w>
Adv anced</w>
Acho imre</w>
29 9</w>
19 1</w>
tarmlig ean</w>
rann íocaíocht</w>
nor mally</w>
main taining</w>
li t</w>
li ability</w>
inmheán aigh</w>
iniúch adh</w>
ind ication</w>
h íocaíochtaí</w>
fru it</w>
f all</w>
doub t</w>
d ei
comhair liúcháin</w>
cinn fidh</w>
ainmn eacha</w>
U ri
Remo te</w>
M D
Jun k</w>
Iom lán</w>
E veryone</w>
Comh cheangail</w>
Aon tachas</w>
197 0</w>
to o</w>
tabl es</w>
t reo
sí nithe</w>
sub stitu
s al</w>
rec ent</w>
no ch
ng lacfar</w>
lin gu
inneo ga</w>
for mheasta</w>
deliber ations</w>
crea ting</w>
ath y</w>
ast u</w>
as ta
UR G</w>
U P
M í
IB M
Hea der</w>
Fh or
Cáip éisí</w>
Abh cóide</w>
up date</w>
targe ts</w>
sy non
suib scríofa</w>
struc tural</w>
si tes</w>
rai sed</w>
publ ish</w>
olog y</w>
lo d
ionad aíonn</w>
ha vi
ghear radh</w>
ga ol
f t
di g
cust om</w>
cor por
con soli
c ineálcheadú</w>
bun ús</w>
bhfor bairt</w>
Uri Ser
UriSer v</w>
Lex UriServ</w>
Ghearm áin</w>
F illteáin</w>
11 7</w>
í se</w>
un tais</w>
theicn iúla</w>
tax ation</w>
st air</w>
ru g
om raí</w>
nd ear
m i</w>
ló v
iterran ean</w>
idirthréimh seacha</w>
f Ã</w>
de tec
cos tas</w>
choit inn</w>
bro ad</w>
breith eanna</w>
as ks</w>
as aithe</w>
amer a</w>
UNI TED</w>
Scr ío
Sain roghanna</w>
S L
Ró m
RÉ ACHT
D omh
Cont ents</w>
Chu ig</w>
BHUN AÍONN</w>
éic each
ÁL TA</w>
sealbh óirí</w>
ril lic</w>
re ply</w>
n ítear</w>
modi fy</w>
mo tion</w>
mi gration</w>
gC aibidil</w>
fág tha</w>
freagra chtaí</w>
ean s</w>
dtabhar faidh</w>
dra wing</w>
có naithe</w>
bun reachtúla</w>
To ol</w>
T aighde</w>
Qu it</w>
G ro
Environ ment</w>
Bo sca</w>
áip éar</w>
tor al</w>
thuair im</w>
th rian</w>
tair isc
t sochaí</w>
se en</w>
rann pháirteacha</w>
qu are</w>
mh éide</w>
lé ar
l íomh
introduc tion</w>
improv ement</w>
en vis
eal lach</w>
dem and</w>
char ged</w>
aon tas</w>
UTF -
Sta te
Organ iz
O IR
EACH A</w>
D RÉACHT
C earta</w>
25 6</w>
12 4</w>
ó s</w>
ábh áil
u athoibríoch</w>
ti an</w>
ta lamh</w>
s eacht
real ly</w>
re numbered</w>
ra ble</w>
peo ples</w>
h athruithe</w>
ean as</w>
di plom
cont ents</w>
al a
Un til</w>
Tu arascáil</w>
T ag</w>
Swit ch</w>
S CR
Par tic
P aste</w>
Ex p
BUN REACHT</w>
Ad vis
16 1</w>
vó ta</w>
vo tai</w>
u k</w>
tos aithe</w>
su ite</w>
sc air
of f</w>
m in</w>
la ítear</w>
iz ations</w>
ec osy
dra w
dlíth eanacha</w>
c ore</w>
ame ters</w>
adjust ment</w>
ad j
ach e</w>
a war
Windo ws-12
Slo v
S í
E is
C entre</w>
17 3</w>
án aithe</w>
Íomh ánna</w>
w ishes</w>
u ait</w>
synon yms</w>
su res</w>
speic is</w>
sol áthr
saor ghluaiseacht</w>
pol lu
po las
n eacht</w>
mho dh</w>
mh aíochta</w>
mb o
lái thr
it -
fhu inn
ea si
di fri
creid mheasa</w>
c in
c ancel
as a</w>
ard leibhéal</w>
Te chn
M anu
M B
IN EAR
F lo
wor ld
tach ta</w>
sub paragraphs</w>
sp éir
so far</w>
sh ibhialta</w>
r ítear</w>
p ages</w>
it a</w>
indic ative</w>
foun ded</w>
eola íocht</w>
com bin
an ds</w>
aistri the</w>
Slo ven
Lu cht
K ING</w>
Ex ternal</w>
DRÉACHT CHONRADH</w>
CF P</w>
10 0
usu ally</w>
th eacha</w>
th aighde</w>
shon rú</w>
sh ort
ser ve</w>
s ítear</w>
ráth ú</w>
príomh a</w>
núiclé ach</w>
nd í
muir ir</w>
muil eata</w>
in ghlac
impl eachtaí</w>
hear ts</w>
h oibríochtaí</w>
gcu id
e m</w>
chinn eann</w>
ar do
ag enda</w>
T rá
Rec ei
Ou t</w>
L T
K i
Instru ment</w>
G AL</w>
th ri
th ous
th an
t le</w>
sp ades</w>
si tive</w>
sc aip
s mart</w>
ro l
re porting</w>
re jec
oth ers</w>
onnmhair iú</w>
mil itary</w>
in eas
fri end
eola íochta</w>
eis tiú</w>
di o
d ead
com prehensive</w>
ch aitheamh</w>
ch air
appro xim
ag óid</w>
Vi e</w>
V I
C P</w>
1 -
ú ráin
éar la</w>
ál aithe</w>
to ok</w>
thac aíocht</w>
sub jects</w>
spéir eata</w>
sh íniú</w>
prepar e</w>
pl ease</w>
n- aisghairtear</w>
it ting</w>
in ess</w>
idir -
id i</w>
govern ance</w>
go al</w>
e áilte</w>
da tes</w>
comh dhéanamh</w>
co inbh
co danna</w>
chum asaigh</w>
chomh all</w>
ch aibidil</w>
br áid</w>
bl ock</w>
R an
D earbh
Commun ication</w>
3 2.
14 2</w>
í fidh</w>
éir íonn</w>
wh ite
tific ates</w>
th íortha</w>
rái tis</w>
re vo
próis eáil</w>
prío bháideach</w>
p et
me án</w>
m ann</w>
identi fication</w>
gc eap
fin ally</w>
fhreagra íonn</w>
eic the</w>
effor t</w>
ea f
defic it</w>
d iúl
chomh théacs</w>
chomh aontuithe</w>
bar úlacha</w>
b éim</w>
b eaga</w>
ath uimh
asse ss</w>
al isation</w>
S aoir
Cy rillic</w>
Bal tic</w>
20 7</w>
18 9
transf erred</w>
tr ac
tex ts</w>
si an</w>
sec re
ri amh</w>
off er</w>
ionann ais</w>
c ruthú</w>
asy lum</w>
aon taíonn</w>
al ways</w>
_ Ath
NE THER
Log ann</w>
D O</w>
Comh aontú</w>
Bru is
Atlan tach</w>
tor rent</w>
suspen ded</w>
particip ants</w>
osc aí</w>
os aigh</w>
oc k
insc ne</w>
h id
f onts</w>
exerc ising</w>
be li
ath raithe</w>
_ m
To day</w>
TA C
T able</w>
S on
Indi an</w>
4 00</w>
20 6</w>
0 2</w>
Í BH
tonn es</w>
there by</w>
thao bh
sc ape</w>
pl and
ph lean</w>
in siú
if ying</w>
i Calendar</w>
h iarratais</w>
fu aime</w>
friend ly</w>
dist or
cai te</w>
bhfu air</w>
ain _</w>
Taisp eán
St yle</w>
Spri oc
Rel o
Person al</w>
Part nership</w>
Nep om
D ar
Comh ar</w>
á rach
ve re
trans -
teag aisc</w>
s om
rú cháin</w>
rann pháirtithe</w>
p ei
oibr íonn</w>
oib reoidh</w>
n Ã</w>
mhea st
l ec
h ábhar</w>
er iche</w>
en coding</w>
ea u</w>
dl eachta</w>
cé n</w>
cinn teoireachta</w>
chumh dach</w>
cead únas</w>
bra íochta</w>
bhu iséad
am us</w>
U S
Sh óisialta</w>
S en
R un</w>
L agh
F A
Co operation</w>
C P
16 8</w>
14 9</w>
thu as
thir ds</w>
por te
ng lacfaidh</w>
mh ion
la eth
l screen</w>
iomaíoch as</w>
gcomh lachtaí</w>
gc ead
employ ers</w>
eisi amh</w>
eisi ach</w>
conf identi
buiséad acha</w>
bhfu il
bain istithe</w>
Strate gy</w>
Sta d</w>
S ince</w>
P at
Lev el</w>
L é
Cuir eadh</w>
C iar
B ase</w>
A ibh
res ted</w>
p ána</w>
ob ail</w>
fost aithe</w>
feithic il</w>
en cryp
en .
du m</w>
comh lán
chomhchuibh iú</w>
S aving</w>
NETHER LANDS</w>
M ore</w>
Leas -
LI AM
IAR SCR
E D
Ctr l</w>
23 5</w>
15 6</w>
óir i</w>
ó ras</w>
Á i
w rap</w>
tal ún</w>
t seirbhís</w>
t n
shub staint</w>
sao thrú</w>
quanti ties</w>
pursu e</w>
poten ti
parti tion</w>
origin ating</w>
lean ún
int íre</w>
ghlac ann</w>
fíon cha
enh ance</w>
eala íodh</w>
ci g
chú is</w>
athbhreith nithe</w>
PHOB AIL</w>
IARSCR ÍBH
Gr and</w>
Emp athy</w>
Det ails</w>
Ceann tásc</w>
C N</w>
AI R</w>
3 93</w>
ther more</w>
super vision</w>
statis tical</w>
sav ed</w>
s li
progres sive</w>
parti ally</w>
organ ization</w>
me áin</w>
m id
leictreon ach</w>
leabhar mharcanna</w>
iomarc ach</w>
h im
guarante ed</w>
eligi bility</w>
ein ti
dru g</w>
dh éag</w>
dh iúltú</w>
cun tas
chomh lánú</w>
ch reat</w>
c is</w>
aifead adh</w>
aibid le</w>
Uachtar ánacht</w>
T eastas</w>
S ur
PO LI
P K
Med iterranean</w>
INEAR ÁLTA</w>
Fé ach
EN TS</w>
Ciar dhu
AI S</w>
22 5</w>
16 5</w>
15 2</w>
éifeach tacht</w>
vi ously</w>
v ic
rea mhu
invi ted</w>
inni ollacha</w>
in valid</w>
h lod
h eic
gu ide</w>
form er</w>
dra mha
cuir eann</w>
comh ionannas</w>
call s</w>
cainníoch túla</w>
bh ail
b onneagar</w>
W a
PAR LIAM
O l
Leag far</w>
Heill ê
Fol ders</w>
Caith fidh</w>
0 6
vis ed</w>
v an</w>
ti n</w>
thabhar far</w>
sh all
s lí</w>
r y</w>
on na</w>
m aoin</w>
li am</w>
k a</w>
h ours</w>
gcinn fidh</w>
fh aireach
dl it
dis k</w>
dam age</w>
cir cu
chú raimí</w>
chomh tháthú</w>
bain ne</w>
b ir
al ong</w>
ain ts</w>
a j
Ver sion</w>
Short cut</w>
Réamh shocraithe</w>
Roghn aithe</w>
PO P</w>
M P
I TH
E st
Cu ardach</w>
Co throm
C ad</w>
éad ar</w>
und water</w>
táirg eachta</w>
th éar
teas tas</w>
se áil</w>
rela tion
reg istration</w>
reamhu isce</w>
pho to
p aper</w>
oifi giúil</w>
l anna</w>
h or
dh leathach</w>
comh líon
co p
St re
Scr ú
S li
Mem o</w>
Ma ke</w>
Jav a</w>
Ir ish</w>
E uro</w>
DES IR
D ri
Au tomatic</w>
10 49</w>
ái reofar</w>
á ite</w>
thar aif</w>
s aving</w>
play er</w>
p ref
op s</w>
noch tadh</w>
mh ol
lan d
it í</w>
invol ve</w>
for ais</w>
fish er
fhaigh tear</w>
enab ling</w>
eag arth
ea v
contr acting</w>
chu mars
cho ice</w>
c ulture</w>
ar gu
ab h</w>
a chur</w>
Th eme</w>
Sé amus</w>
Roghn achais</w>
O f</w>
L DA
LDA P</w>
Inn eall</w>
F ull</w>
C ealaíodh</w>
C abhair</w>
201 6</w>
0 3</w>
uath u</w>
u g</w>
t arraing
situ ations</w>
si t</w>
rul ing</w>
requ iring</w>
r ing</w>
pat ter
m ent
insiú in</w>
inniú lachta</w>
gn é</w>
g ó
f eirmeoirí</w>
exten d</w>
e ding</w>
democ ratic</w>
com po
chead aithe</w>
ao is
_ Windows-12
U s
Té ama</w>
Sub version</w>
R G
Ciardhu áin</w>
B reitheamh</w>
5 a</w>
3 92</w>
16 0</w>
15 3</w>
15 1</w>
00 00
unc tion</w>
tr a</w>
staid rimh</w>
safegu ard</w>
ré ag
rial aítear</w>
remo ved</w>
rati fication</w>
pionó is</w>
muin ín</w>
k m</w>
iarr faidh</w>
h eight</w>
gcu spóir</w>
es tic</w>
domh an</w>
críoch ach</w>
contribu ting</w>
bl oc
b all
ai tear</w>
a _
T er
Po sition</w>
EORP A</w>
D av
Ch istí</w>
15 8</w>
13 7</w>
11 a</w>
thre sh
star ted</w>
sho ch
rea th
n G
mpl éad</w>
leng th</w>
instruc tions</w>
h l
fi os</w>
easc raíonn</w>
dhlíth iúil</w>
dh eir
conven ed</w>
ch ei
bh léidí</w>
V ari
POR TU
Grou p
G _
C ód</w>
Ap p
17 4</w>
13 3</w>
13 1</w>
uas teorainn</w>
sprea g
speis ial
sp ir
sh or
ré imhse</w>
p áil</w>
na ítear</w>
le t
k et</w>
iún aí</w>
inn eachar</w>
il d</w>
iarnró id</w>
gen der</w>
fh rith
eidh meoidh</w>
d tac
contr ary</w>
concern s</w>
ch úirt</w>
bu an</w>
as ked</w>
am es</w>
adap tation</w>
_ en.
Sh ar
Ro th
Ph rótacail</w>
Out put</w>
N ESS</w>
L ean
B earta</w>
Ard- Údarás</w>
Acc ess</w>
18 6</w>
14 6</w>
té ir</w>
tr ue</w>
stór ála</w>
ste ms</w>
s aghas</w>
pres sure</w>
prepar atory</w>
oibri úcháin</w>
mun ity</w>
mo dule</w>
mion sonraí</w>
man d
lea bhair</w>
ghníomh ú</w>
foil síodh</w>
f i</w>
eang acha</w>
dh eis
deimh niúcháin</w>
bl ank</w>
bhf ad</w>
bh F
aing niú</w>
_BAR _</w>
U athoibríoch</w>
Secon d</w>
Lip éad</w>
LAI MIN
Gníomh artha</w>
En try</w>
EACH TA</w>
E qu
18 9</w>
Á IL</w>
ullmh úcháin</w>
special ised</w>
saor áidí</w>
s amhail</w>
prov is
ph ar
on line</w>
man date</w>
is ce
is Name</w>
integr ity</w>
gluais eacht</w>
form áid</w>
f ú
di ver
deli vered</w>
d téarma</w>
conduc ted</w>
bhf abhar</w>
ap s</w>
P I</w>
No ti
D ig
D ay</w>
Con tracting</w>
Ã ³</w>
tu iscint</w>
se ts</w>
sch edul
saoir sí</w>
ris ks</w>
rea d
ra se</w>
och taí</w>
mb aol</w>
l ainn</w>
it ment</w>
hlod áile</w>
gh t
gh réasáin</w>
gc aith
frea graí</w>
eá l</w>
ex changes</w>
ed itor</w>
d one</w>
cu ardach</w>
chr on
chai pitil</w>
ac es</w>
U K</w>
TF T</w>
S tor
R éir</w>
N E</w>
Lo ad</w>
Heill éan
0 6</w>
óg airt</w>
ál tais</w>
u l</w>
tra í</w>
thuas luaite</w>
su ff
scrú dú
s cho
provis ional</w>
pro file</w>
m ouse</w>
lo dged</w>
l are</w>
is ciú</w>
h Ísilt
fu air</w>
frea gairt</w>
eilleag air</w>
comh dhéanta</w>
ch ear
aon toil
a Name</w>
Struc tural</w>
SM TP</w>
P au
M EA
I ES</w>
Ard- Stiúrth
An nex
An d</w>
tri bunal</w>
tic iúla</w>
s ei
ra d
pla ying</w>
p earsan
on tála</w>
n gníomhaíocht</w>
li onadh</w>
ist i</w>
in iú
ghair m
forb airtí</w>
discrim in
dis abled</w>
cum a</w>
car e
c air
bal ances</w>
X M
T LS</w>
No twithstanding</w>
Down load</w>
CS V</w>
windo ws</w>
u f</w>
tá iste</w>
thr ád
sta ges</w>
soláth airtí</w>
retur n</w>
ph as
offic ers</w>
nd lí
k i</w>
iot án</w>
im al</w>
gn ímh</w>
gco iste</w>
fin ished</w>
enti ty</w>
end eav
dim en
d tríú</w>
cáil íocht</w>
bhea laí</w>
T w
Po st
O D
Gn íomhaireacht</w>
Eoch air</w>
ER DF</w>
EC R</w>
D eimh
14 7</w>
to olbar</w>
thar laíonn</w>
thair bh
tea stais</w>
t- ioncam</w>
t ío
t suim</w>
substan tial</w>
ser ies</w>
ombud sman</w>
numb ers</w>
n aíocht</w>
m aoinithe</w>
le ts</w>
iún aithe</w>
ionc aim</w>
ghn éithe</w>
fhor chur</w>
d ófar</w>
chomh lach
cead únais</w>
aighn eachtaí</w>
Tar iff</w>
Spá inn
Rann chuideoidh</w>
O S</w>
Lu as</w>
Log áil</w>
Le gal</w>
H ar
C -
Au thentication</w>
Ar ti
Al b
we ek</w>
t tom</w>
straité iseach</w>
sta t</w>
sc ar
remin der</w>
parlaimin tí</w>
p ac
omh as</w>
o ks</w>
o inn</w>
mbun ófar</w>
if t</w>
hÍsilt íre</w>
gra du
gc ea
for t</w>
fheithic il</w>
el ection</w>
dom estic</w>
cons isting</w>
commun ity</w>
cea thrú</w>
calcu lation</w>
c istiú
author ise</w>
appro ach
ait éis</w>
Re qu
Ph ol
N S</w>
Gn íomhair
E CH
Annex es</w>
26 .
y Name</w>
up dated</w>
u ile
to sc
ter ing</w>
speic eas</w>
seirbh is
ro inn</w>
respec ting</w>
próis eála</w>
plac ing</w>
perform ed</w>
mb anc</w>
inni u</w>
ic ip
i a_</w>
gh á</w>
gear ánach</w>
gC uid</w>
fhó gra</w>
farm ing</w>
elim in
dréacht ghníomh</w>
dis charge</w>
deli very</w>
dec lare</w>
de sign</w>
clu bs</w>
clos ure</w>
b aol</w>
an ian</w>
adv ance</w>
Str aitéis</w>
Gn íomh</w>
Fhionl ainn</w>
FR D</w>
Bun ófar</w>
6 00</w>
0 4
u ain
transi tion</w>
tex t
taisp eán
ta Ã</w>
she omra</w>
s .
res earch
re sign
re me
mea s</w>
lach áin</w>
la mh
l sealbhóirí</w>
ke pt</w>
ir regular
il le
il eog</w>
ib ility</w>
gcomh aontú</w>
err ing</w>
div ision</w>
comb at</w>
bain teach</w>
annu ally</w>
_ Copy</w>
Tem plate</w>
EA S</w>
EA FRD</w>
CB I</w>
31. 12.
- specific</w>
tag airtí</w>
st op
ráth aíocht</w>
re mun
re lig
ndéan fadh</w>
mo der
ins urance</w>
inclu sive</w>
hear ing</w>
gra ding</w>
exerc ised</w>
dí riú</w>
coun ties</w>
comh pháirteanna</w>
car bon</w>
au thentication</w>
all et</w>
aim síodh</w>
P aper</w>
Men u</w>
M ain
1. The</w>
ul d
talmh aíocht</w>
t saoirse</w>
success ful</w>
state ments</w>
st rea
scrúdú cháin</w>
sc eál</w>
ro ot</w>
r o</w>
pol ice</w>
leg ally</w>
in sofar</w>
im id</w>
gro ss</w>
fíon a</w>
fra me</w>
fi er</w>
el ement</w>
ear n</w>
difr íocht</w>
co bhsaíocht</w>
cho stais</w>
bun táistí</w>
ass ent</w>
ail í
aibid lí</w>
acmh ainn
_ Delete</w>
U ile</w>
To p</w>
Th eir</w>
Pro gram</w>
L ong
Compl e
C ab
Am a</w>
Ac tive</w>
19 2</w>
18 7</w>
y- General</w>
u iscí</w>
tri uf</w>
tradi tional</w>
s raith</w>
rela te</w>
qu es</w>
phys ical</w>
pan e</w>
nu al</w>
main tained</w>
m er</w>
lé ite</w>
lic ences</w>
ghn íomhair
fhíor ú</w>
fhor m
exclu sion</w>
eic neola
each ais</w>
cúl chistí</w>
consequ ences</w>
chea d</w>
at u
artic les</w>
aist í</w>
Sco ir</w>
Sc áile
Roghn ú</w>
RE C
Nuashon raigh</w>
EA EC</w>
De f
Comhair leach</w>
CE TFT</w>
25 5</w>
198 7</w>
z ones</w>
work ed</w>
vol un
ta cho
strai me</w>
recei pt</w>
rec y</w>
quanti ty</w>
plug ins</w>
plac es</w>
pl ant</w>
olu ithe</w>
n aitheach</w>
man age</w>
m ean</w>
leic tr
lai mh</w>
ing ing</w>
gh eilleagar</w>
gcomhlíon far</w>
gc untas</w>
fan acht</w>
entire ty</w>
eilbhí ní</w>
comh adlann</w>
clo ser</w>
choit eanna</w>
bun úsach</w>
bu m</w>
bit ration</w>
bh eaga</w>
b óin</w>
b ran
aith eoirí</w>
ag g
Vie wer</w>
U D
S S</w>
Relo ad</w>
Emp ty</w>
Da tabase</w>
DESIR ING</w>
Ceang ail</w>
Al ways</w>
3 47</w>
2 -
14 5</w>
14 4</w>
ó in
Ús áid
tri ail</w>
the ora</w>
tem plate</w>
tei lea
t ance</w>
sho il
re struc
publ ications</w>
poin tment</w>
n eart</w>
mh aoinithe</w>
lis ts</w>
i asc</w>
gc os
g iú
exem ption</w>
encour aging</w>
derog ations</w>
daon ra</w>
classi fication</w>
chúl ra</w>
chomh dhéanann</w>
ch innidh</w>
ath struchtú
ar ri
aontoil íocht</w>
ai ce</w>
X X
STITU TION</w>
Réamh shocrú</w>
M ic
M ay
ECH R</w>
Docu ments</w>
Dan ish</w>
CF RE</w>
197 4</w>
18 4</w>
130 6</w>
ún aimh</w>
ío d
â n</w>
y right</w>
toir m
tiom ánaí</w>
t óra</w>
subm issions</w>
sub -
soghluais teacht</w>
sit ting</w>
shoc raigh</w>
s ear
re im
r i</w>
prío bháideacha</w>
prac tical</w>
mo st
iarratas óirí</w>
fheithic lí</w>
eng age</w>
eal th
direc tive</w>
di um</w>
an e</w>
allow ing</w>
ai ds</w>
acqu is
achtar án</w>
ac s
a -</w>
_C óipeáil</w>
S íniú</w>
S al
Roghn achair</w>
Ite m</w>
G earr</w>
Consul tative</w>
B eilge</w>
B E
26 3</w>
wh enever</w>
w ai
te sts</w>
te en</w>
t ren
sábháil teachta</w>
sta tes</w>
sta ted</w>
per spective</w>
off line</w>
meast óireachta</w>
m ass</w>
institiúid i</w>
fh ocail</w>
fh eirmeoirí</w>
exper t</w>
entr usted</w>
cú is</w>
cáil íochtaí</w>
chomh ionann</w>
c ain
bro wser</w>
bhea tha</w>
air is</w>
O U
G E</w>
C ore</w>
Bh reitheamh</w>
Au str
25 .
197 1</w>
- based</w>
transf ers</w>
st áit</w>
sheas amh</w>
réasú nta</w>
recei ving</w>
páir ce
pet ro
p eti
on ti
n- údarás</w>
is tic</w>
improv ed</w>
h und
gealltan as</w>
fu el</w>
eo bhaidh</w>
dist ur
dhéan aí</w>
daon na</w>
cu ir</w>
bhun aithe</w>
V II
R ome</w>
Py th
Ob jec
H ow</w>
H ER</w>
Chan ges</w>
Associ ation</w>
16 9</w>
14 3</w>
0 4</w>
0 ,
Ã³ ir</w>
ur rú
til ity</w>
t án</w>
r ar
partic ular
out come</w>
oc ca
mí -
láithr eacha</w>
gc aoi</w>
fix ing</w>
equal s</w>
eo ir
easp a</w>
ea na</w>
díosp óireacht</w>
chu cu</w>
a vi
Secretar y-General</w>
G INEARÁLTA</w>
Féach faidh</w>
Char ac
Av ailable</w>
2007- 2013</w>
2 10</w>
19 57</w>
11 3</w>
ÍOCH TA</w>
y outh</w>
théar maí</w>
tai fid</w>
t slándáil</w>
susp end</w>
supplem ented</w>
sm all
oiriú int</w>
m ais</w>
léir íonn</w>
iarr ann</w>
hear nálacha</w>
he reby</w>
gh abhfaidh</w>
g ain
exp an
ear ance</w>
ea dh
dis tric
determin ation</w>
deon ú</w>
comb ating</w>
chinn fidh</w>
chea thrú</w>
ceil ings</w>
_S ábháil</w>
St air</w>
Par ties</w>
P ow
O rig
N at
IARSCRÍBH INN</w>
Fo inseach</w>
Eagra íocht</w>
Co ir
Cer tain</w>
C óip
23 4</w>
130 7</w>
ói de</w>
tá bla</w>
transpar ent</w>
tion ól</w>
teagh laigh</w>
sain mhíniú</w>
remun eration</w>
regis ter</w>
qual ifications</w>
p insin</w>
law y
gl an</w>
ghrá dú</w>
fi che</w>
e dit</w>
dhualg as</w>
coll ective</w>
cli ent</w>
chl eachtas</w>
car ds</w>
bhu iséid</w>
accep tance</w>
_ Mac
_ Leis</w>
S C
R SA</w>
O ll
Mo dule</w>
M eán
In fo</w>
ISI Ú
Green land</w>
G A
C aibidle</w>
Aist ri
AS C
3 a</w>
22 .
2 18</w>
15 .
14 1</w>
Úsáide ora</w>
Ísilt ír</w>
v a</w>
unanim ous</w>
toir measc</w>
she ets</w>
os taí</w>
nasc tha</w>
le gi
ion cr
ghnóth as</w>
g ies</w>
foc ail</w>
fl ex
fiosrú chán</w>
fi ght</w>
fhad ú</w>
ens es</w>
eacnam aioch</w>
de pri
bhé ar
awar eness</w>
a u</w>
Tionscad ail</w>
L ock</w>
Fi eld</w>
Feis ire</w>
F ostaíochta</w>
CON STITUTION</w>
Bulgar ia</w>
Attach ment</w>
Ar chive</w>
23 2</w>
19 7</w>
éal a</w>
w eight</w>
tu ar
statis tics</w>
sen sitive</w>
sec recy</w>
reci pi
protec tive</w>
ph lean
n gnóthas</w>
m p</w>
li ún</w>
in corpor
ht m</w>
gcomh aontuithe</w>
fíoncha or</w>
facili ta
d ála</w>
cri tical</w>
cl early</w>
chlú dach</w>
chamb ers</w>
c ean
b onneagair</w>
assess ments</w>
advanta ges</w>
ach ain
Spec ific</w>
S in</w>
S ci
Phortaing éil</w>
PR Ó
Nepom uk</w>
N íos</w>
Limist éar</w>
K o
H an
Ge or
Fur thermore</w>
Con ditions</w>
C Y</w>
B reith
An seo</w>
A str
8 -
19 65</w>
.12. 2013</w>
éasc a</w>
un it-
thean ach</w>
star ting</w>
sheach trach</w>
rea b
nam ed</w>
n gníomhartha</w>
n either</w>
iomlá na</w>
ill ing</w>
hidir thréimhse</w>
heic te
hear nála</w>
ge oidh</w>
fhuinn imh</w>
f ew</w>
estima tes</w>
ea tra
dlíth eanach</w>
de stination</w>
cáip éise</w>
cuim sitheach</w>
ch onradh</w>
caith fidh</w>
bhai liú</w>
Taisp eÃ</w>
R us
P A
M ouse</w>
Leabhar mharc</w>
Lat via</w>
Lait via</w>
Is su
E EN</w>
D own</w>
Ch amb
CHOMH PHOBAIL</w>
CE CD</w>
Aon ad</w>
ún tais</w>
tá sca</w>
tr aigh</w>
th ras
t arraingt</w>
saf e</w>
s ábháil</w>
ríomh phost</w>
recru itment</w>
pro pri
par tial</w>
monar óir</w>
mo ite</w>
l óidh</w>
iti anta</w>
inten tionally</w>
govern mental</w>
dhaon ra</w>
design ation</w>
d al
compr ising</w>
chú igiú</w>
choigear tú</w>
c án
bhain istíochta</w>
back up</w>
Tea stais</w>
T ao
S ome</w>
Pr inter</w>
P os
P ob
CE AR
C luaisín</w>
An ti
An nual</w>
20 1</w>
éif eachta</w>
tu na</w>
taisp eáint</w>
su me</w>
ss es</w>
scag adh</w>
ré idh</w>
or ach</w>
ni os</w>
mh ainn
manag ed</w>
let ters</w>
leabhar mharc</w>
iú ró</w>
industri es</w>
i table</w>
gi ves</w>
gc láir</w>
gc l
fulf illed</w>
f lu
ex chan
dt i</w>
dispu tes</w>
direc tor
de g
cuid eachta</w>
chú is
ce ist</w>
caighde án</w>
book mark</w>
arrain geoidh</w>
ans wer</w>
T ob
Secretar iat</w>
Orig inal</w>
K al
I cel
H ead</w>
For br
F aigh</w>
D ú
óth ar</w>
ww w</w>
uni versal</w>
tea s</w>
sc oil
remain der</w>
r ich</w>
ph ionó
me d
lap se</w>
ke ts</w>
ip ir</w>
iniúch óireacht</w>
enti re</w>
en abled</w>
diff erence</w>
d y
comhchuibh eas</w>
clo sely</w>
chultú rtha</w>
ch eartú</w>
ch e
b reach</w>
ax is</w>
S ao
Ob ject</w>
L org</w>
K Char
Im ages</w>
D Á</w>
B eartas</w>
Airteag al
AON TAS</w>
éir eachta</w>
éad air</w>
v ul
ta g</w>
sain mhínithe</w>
s quare</w>
ri oscaí</w>
restruc turing</w>
rai sing</w>
prepar ing</w>
pei tri
loc ated</w>
leigh eas</w>
isc fear</w>
iomp órtáil</w>
institiú ide</w>
indic ate</w>
in direct</w>
fo cu
fea tures</w>
f ir</w>
demon stra
dar à</w>
daonlath as</w>
conflic t</w>
chomh dh
c lai
bu iséid</w>
_ All</w>
User name</w>
Un do</w>
Scri p
Organ isation</w>
Ion chódú</w>
G A</w>
Fá gadh</w>
E ff
Dis able</w>
Ceap faidh</w>
Bhun reachta</w>
B us</w>
AL TA</w>
2 15</w>
ó faí</w>
ái di
á istí</w>
wh y</w>
vel ope</w>
transi t</w>
th omhaltóirí</w>
tach taí</w>
t óg
soci e
scríbh inní</w>
sc oi
sc air</w>
rá na</w>
ru daí</w>
ro ich
reim bur
rann íocaíochtaí</w>
pre viously</w>
plann ed</w>
part nership</w>
p ast</w>
os la</w>
ni th
leithdh áil
ing redi
hu man
high est</w>
fol úntas</w>
favou rable</w>
fac ility</w>
envis aged</w>
dh earbh
dar d</w>
compens ation</w>
clú idí</w>
chtain eacht</w>
chom óradh</w>
ar chi
approach es</w>
all s</w>
T reo
Leag faidh</w>
K u
EM B
A no
20 3</w>
óis ial
ís le</w>
Ó n</w>
t aisce</w>
sú la</w>
stor ed</w>
stiúrth óir</w>
sp ic
scaip eadh</w>
regu la
pr ai
p on
n d</w>
lagh daithe</w>
l y
i re
ge ts</w>
gcú rsaí</w>
gc úirt</w>
dh únadh</w>
comh pháirteacha</w>
bu an
athchúrs ála</w>
ab les</w>
TI Ú
Stre et</w>
S ession</w>
K S</w>
3 91</w>
198 0</w>
1 a</w>
éir eacht</w>
É IR
w are</w>
timpeal lacht</w>
th ur
statu tes</w>
sp ot</w>
rogh chlár</w>
respec ted</w>
re i
pr ó
og le</w>
mí cheart</w>
mheas tar</w>
marg aíochta</w>
ma oluithe</w>
ionta oibh</w>
indic ated</w>
hund red</w>
h Iod
ge dit</w>
fulfil s</w>
fost óir</w>
eimh lith
dío bh
dra f
dhea sca</w>
dam áiste</w>
cu imhne</w>
ch reid
cas h</w>
athnu aite</w>
alcoho l</w>
air eanta</w>
ail teach</w>
Vice- President</w>
T asc</w>
PE G</w>
P ur
Ion ad</w>
EN TA
Cop yright</w>
Categ or
COMMUNI TY</w>
B ack</w>
19 0</w>
í ne</w>
til les</w>
teicneola íochtaí</w>
t sláinte</w>
t ch</w>
su gg
st át</w>
so f
sc éal</w>
riangh raif</w>
r eachtanna</w>
pi x
perm it</w>
ndear na</w>
mu t
lab elling</w>
instal led</w>
ias acht</w>
i ach
h aidhmeanna</w>
graph ic</w>
gener ally</w>
gceann as</w>
gc aidreamh</w>
dis played</w>
dheimh nithe</w>
deposi ted</w>
cor as</w>
conclu sions</w>
co i
bre w</w>
bp obal</w>
bhf oil
b lu
Un der</w>
Rial ach
R ú
R inne</w>
P as
OP ER
OLA F</w>
IBM -8
Direc tives</w>
De part
CE S</w>
B ir
ANNE X</w>
22 8</w>
1 f</w>
té ama</w>
t- iarratas</w>
próis is</w>
proportion ate</w>
pen sion</w>
ma te</w>
m Bunreacht</w>
leas aithe</w>
l onn
l earn</w>
itor y</w>
ir g
immun ity</w>
h aire</w>
ge -
g en</w>
f lag</w>
eir spic
droch riarachán</w>
distribu ted</w>
ch y</w>
ch tú</w>
bh áis</w>
a ol
Tur k
S ort</w>
S oláth
IV -4
HT TP</w>
En coding</w>
C ip
áip éir</w>
trans national</w>
to day</w>
tax es</w>
seala dacha</w>
rec ur
m óra</w>
lár nach</w>
lu ath</w>
le um</w>
le och
inten tion</w>
i potenti
h EORPA</w>
gc éanna</w>
fost óirí</w>
en ough</w>
ch aidreamh</w>
c istiú</w>
V olume</w>
Scri os
R áth
Pob lachta</w>
PARLIAM ENT</w>
Eacnam aioch</w>
E ast</w>
Director ate
COMH AIRLE</w>
C eann</w>
Bun óidh</w>
Ap ply</w>
A mharc
A 1</w>
19 .
17 6</w>
óil ín
z illa</w>
trans- European</w>
tab ly</w>
st on</w>
seach áin</w>
scoi le</w>
sc eimhlith
re tri
rar ely</w>
ra ma
ra i</w>
pla í</w>
phrío bháideach</w>
o v</w>
ni u</w>
neamh chla
multi -
leath adh</w>
inbhuan aitheacht</w>
iasc airí</w>
h oriz
gealltan ais</w>
eff ected</w>
distric ts</w>
curren cies</w>
b ac
appoin tments</w>
ai c</w>
acht air</w>
ab oli
Ver tical</w>
T rash</w>
Stru chtú
S ea
P P
FE IDH
Con arthacha</w>
COMM ON</w>
Austr alia</w>
0 7</w>
ó n
ábháil teacht</w>
urg ency</w>
uir b
th eacht
ten de
sec tions</w>
relation ship</w>
re d
r s
o verseas</w>
n eas</w>
mand atory</w>
li br
l t</w>
ist an</w>
in ces</w>
ili pp
ideach as</w>
hIod áile</w>
gcú raimí</w>
gcomh shaol</w>
fo inse</w>
fh eidhm</w>
fh adh
feidhm íochta</w>
en tries</w>
e urop
d aingn
chomh dhéanamh</w>
c eartais</w>
bh osca</w>
b reithiúnais</w>
allst át</w>
alle ged</w>
al ised</w>
_ Ainm</w>
TE S</w>
Sloven ia</w>
Se tup</w>
M c
La e</w>
Institu tions</w>
B lack</w>
3 b</w>
2 11</w>
áir í
té acsanna</w>
su ímh</w>
streng th</w>
sel f-
s é
s wit
pla t
pea ce</w>
on ad
ne g
n- ionad</w>
mh ó
m it</w>
leamh n
la e</w>
iot ail</w>
inten ds</w>
infra structures</w>
h ard</w>
gcomhlíon faidh</w>
gc ar
g or
far raige</w>
fac tors</w>
eisceach túla</w>
each tracha</w>
e u</w>
e di
deposi t</w>
deimh nithe</w>
cai piteal</w>
bh inn</w>
ath raigh</w>
arr an
adj usted</w>
Tr ack</w>
Representa tives</w>
R un
Po int</w>
N ING</w>
MI AN</w>
M O
M A</w>
INN EA
ID Í</w>
G et</w>
Foir ne</w>
Encryp tion</w>
Categor yName</w>
Amh ail</w>
20 .12.2013</w>
vi ded</w>
teagmh ála</w>
sás raí</w>
success fully</w>
speci fic
silt íre</w>
ses sions</w>
roghn aigh</w>
ra y</w>
pres sion</w>
olum ns</w>
o king</w>
ni omh
moun t</w>
leag faidh</w>
ion anna</w>
ineas ú</w>
hol der</w>
fuinn eamh</w>
f fic</w>
f al
do chair</w>
dh eis</w>
defin ing</w>
cúl taca</w>
chlá rú</w>
cheang ailte</w>
c árta</w>
bhf aisnéis</w>
bal anced</w>
b próiseas</w>
at tain</w>
ar s</w>
ag o</w>
ac ce
Y es</w>
Te X</w>
Roghn ófar</w>
R ob
R ead</w>
R ad
N ame
Mu irí</w>
Im plem
Gníomhair eachta</w>
Fran k
Dh eis</w>
27 9</w>
2. The</w>
1 st</w>
ói fí
íoch áin</w>
uld n</w>
terr or
ta pa</w>
symb ol</w>
st ríomhaire</w>
st ant</w>
re ject</w>
par ent</w>
inf lu
iarrth óir</w>
iar r</w>
i v</w>
gra pe</w>
gh rúpaí</w>
fhor líonadh</w>
exc ess</w>
dei ch</w>
d ating</w>
cri o
compar ed</w>
chil d</w>
cea sed</w>
caith eadh</w>
c ao
bro ad
bh Ã</w>
War ning</w>
UP ON</w>
Sc ag
L A</w>
K or
In no
IN STITU
Ch lé</w>
Bro wser</w>
Bh anc</w>
AIN T</w>
22 3</w>
2 1.
áth ar</w>
ul g
ter most</w>
tain ment</w>
ta dh
sh lán</w>
sc agaire</w>
oi dh
no tice</w>
muir ear</w>
ma dh</w>
li ost
lai n</w>
j e
iomlá nach</w>
inghlac tha</w>
identi ty</w>
gcu mas</w>
en ship</w>
each as</w>
cé imeanna</w>
continu ed</w>
conf erences</w>
comple tely</w>
compl ement</w>
ch ineálcheadú</w>
bh reath
av aila
as chur</w>
artic le</w>
appro ve</w>
aboli tion</w>
Tac aíocht</w>
S an
R Í
Pyth on</w>
In clu
He brew</w>
E F
D lí</w>
D PI</w>
Comh dháil</w>
Cip ire</w>
Bru scar</w>
Ath chóir
3 -
2 30</w>
éil eá
vul ner
tug ann</w>
th aithe</w>
t un
soc róidh</w>
s rian</w>
pursu ed</w>
prim ary</w>
peitri liam</w>
olu te</w>
o od</w>
li ve</w>
k il
institu ted</w>
ile án</w>
h ealth
freagra cht</w>
fheidhm eanna</w>
f ail</w>
eal s</w>
d tar
cred its</w>
commun ications</w>
cl ó</w>
chomhlíon ann</w>
c aingne</w>
be gin</w>
and is</w>
a ward</w>
_ Remove</w>
M s</w>
IN STI
I atán</w>
Directorate -General</w>
Dav id</w>
Chu ir</w>
C ás</w>
An tilles</w>
Al arm</w>
AIR GEA
16 3</w>
ves sel</w>
v oid</w>
urram óidh</w>
togh adh</w>
tiv ate</w>
th as</w>
sás ra</w>
su itable</w>
soc rófar</w>
réamh -
re lease</w>
ra bhadh</w>
pen ding</w>
mu ta
lá mh
hí siltíre</w>
ex -
defin itions</w>
cu ótaí</w>
chec ked</w>
bhre is
athuimh rítear</w>
T el</w>
Syn c</w>
Stan dard</w>
S av
S T</w>
Re fresh</w>
RO M</w>
PORTU GAL</w>
N omenclature</w>
M Ã</w>
Im p</w>
I A</w>
H eight</w>
Fa x</w>
F ar
Con ciliation</w>
Col ors</w>
Bu g</w>
Bain eann</w>
í nigh</w>
trans lations</w>
thous and</w>
seirbhí sigh</w>
re vised</w>
prá inne</w>
pla tes</w>
or c
lái dir</w>
f ails</w>
enh ancing</w>
en larg
down load</w>
de vices</w>
d on
conven tions</w>
co vers</w>
cistiú cháin</w>
ca se
at tribu
ais íoc</w>
U ath
T eidil</w>
Oib r
Lucht aigh</w>
Idir -
I TY</w>
D eilbhín</w>
Cli ent</w>
C olumn</w>
Bo x</w>
Ainm n
Ad ministra
2 ,
19 5</w>
Ái reofar</w>
ual ach</w>
tis tic
time- limit</w>
tea staíonn</w>
si zed</w>
sc al
sao il</w>
sa le</w>
rí thábhachtach</w>
protec ting</w>
organ ic</w>
ob stac
náisiún tacht</w>
mheas far</w>
mea ch</w>
los s</w>
lonn aithe</w>
la Ã</w>
ke ys</w>
interven e</w>
in stry</w>
gcomhlíon tar</w>
g le</w>
effec tively</w>
eas naimh</w>
d teorainneacha</w>
com posed</w>
ca tagóirí</w>
c ánach</w>
br inging</w>
bhreith niú</w>
bea laí</w>
b páirtithe</w>
ann aí</w>
acqu ired</w>
_S eol</w>
U l
St ai
Rec ent</w>
RA M</w>
In d
G CE</w>
Cl ú
Bra bhsálaí</w>
Au gu
ARTH A</w>
A U
30 9</w>
2 31</w>
2 20</w>
19 6</w>
13 4</w>
v ement</w>
ton a</w>
ra ther</w>
particular s</w>
mun icip
mhí reanna</w>
m ile</w>
iste oireacht</w>
iont air</w>
ilipp ines</w>
frith pháirteach</w>
f áis</w>
f low
el ess</w>
deal t</w>
cé atadán</w>
cor ru
bhfeidhm eanna</w>
bec om
ban kno
b aill</w>
am bi
aithn ítear</w>
ac tually</w>
R á
P len
INSTI TIÚ
I LE</w>
Hea ds</w>
Est onia</w>
EI B</w>
Dra mh
D Ã</w>
CH Ó
B en
15 5</w>
íos luchtú</w>
w ell
tar lú</w>
t ábhachtacha</w>
t Uas</w>
sain eofar</w>
re áil</w>
p ait
occup ation</w>
nádú r</w>
n- oifig</w>
n esses</w>
n ate</w>
mut andis</w>
mic ro
me á
m ember
inte rested</w>
in compatible</w>
h ear</w>
for iomlán</w>
fo insí</w>
fir ms</w>
far m</w>
e h
d eilbhín</w>
chuid eachta</w>
ch onartha</w>
ceap adh</w>
car achtar</w>
bh rú</w>
X D
TION AL</w>
S onra
N ach</w>
Mat ch</w>
F l
F aoin</w>
D EN</w>
C eangal</w>
3 60</w>
27 8</w>
20 4</w>
ti tu
text box</w>
teagmh as</w>
taraif e</w>
sábh áilte</w>
sk i</w>
sal es</w>
rei lig
rec ords</w>
re v
r ail</w>
pholai tiúil</w>
ol der</w>
ni t</w>
lean na</w>
it ain_</w>
in m
i atán</w>
fi es</w>
endeav our</w>
em en
eacnam aíochta</w>
depri ved</w>
de l</w>
cl iste</w>
circu lation</w>
ch óipeáil</w>
ch ra
br itain_</w>
bhs aíochta</w>
ban c</w>
b en
b all</w>
aith eachta</w>
ai onn</w>
W al
Tw o</w>
Scrú dóidh</w>
Qu ery</w>
POR T</w>
PN G</w>
PAR LAIMIN
IRE LAND</w>
Heillê anach</w>
Gla c</w>
ER MAN
D é
C enter</w>
5 -
25 0</w>
úsáid eann</w>
éi reoidh</w>
ár taí</w>
volun tary</w>
ver ification</w>
there with</w>
theor annú</w>
sceid ealaithe</w>
s tar</w>
riar th
rest ore</w>
rea se</w>
r ice</w>
on faidh</w>
ombud smen</w>
n acha</w>
mea sc
lit reacha</w>
lin ed</w>
leith ne</w>
k le</w>
it y-
inter medi
in oibrith
h our</w>
gco inníoll</w>
fulfil ment</w>
forc ed</w>
fion tair</w>
dh á
combin ed</w>
brea th
bio diversity</w>
bh ith
b post</w>
agra m</w>
ad úla</w>
Tionsc áil</w>
Th eas</w>
TAI THE</w>
Sc an</w>
Log in</w>
Jav a
EI L
Arab ic</w>
Agric ultural</w>
17 0</w>
13 5</w>
óilín eachta</w>
ó id
ái th
tru st</w>
trea laimh</w>
shealbh ú</w>
schedul ed</w>
r ë
pro sp
polas aí</w>
pl us</w>
mode ls</w>
lea th</w>
isc al</w>
i -
hu ile</w>
high -
gnó lachtaí</w>
fh oirm</w>
excee ds</w>
ent ail</w>
educ ational</w>
each tadh</w>
ea t
e ur
dial óg</w>
cum ais</w>
comp res
co istí</w>
car tlann</w>
c s
bhf ost
bh eartú</w>
b inse</w>
asta íochtaí</w>
S ak
P G</w>
Nu ála
MI C</w>
Inn eachar</w>
Horiz ontal</w>
G léas</w>
F eidhmeoidh</w>
F aisnéis</w>
Déan aí</w>
Coth aitheoir</w>
Comh rá</w>
CE D</w>
0 9</w>
with draw
vi deo</w>
tuig the</w>
sub jec
shar ing</w>
shaoir se</w>
phróis is</w>
or ed</w>
objec tion</w>
mon ey</w>
m ach</w>
l er</w>
in o</w>
idir agairt</w>
id s</w>
hu aire</w>
h and
fh ol
ex it</w>
ent res</w>
e ds</w>
dhlí theanach</w>
comm ents</w>
coi bhé
ch eall</w>
cat ch</w>
bar s</w>
av o
at tained</w>
aithean tais</w>
aid rimh</w>
T áirg
T asks</w>
Res ource</w>
Pro file</w>
P lasm
M id
L á</w>
L ena</w>
KD ev
K Mail</w>
Institiú idí</w>
G lac
Dí chumasaigh</w>
Cos aint</w>
Chan nel</w>
Amharc án</w>
18 1</w>
16 6</w>
. 4</w>
whe re
vege tables</w>
uas ráta</w>
tri g
traid isiúnta</w>
th al
sol úb
smo oth</w>
shar es</w>
ref ined</w>
rann chuideoidh</w>
ran g
pho to</w>
phar laimin
petro leum</w>
organ izations</w>
objec ts</w>
ne u
n- áirith
n an
lín se</w>
gra de</w>
gh réasán</w>
eo ver</w>
en c
con trá
con arth
comh chuí</w>
co itianta</w>
clu ais
caibidl íochta</w>
cabh racha</w>
c o</w>
an no
ac ted</w>
a sh
Sta ff</w>
Pri ority</w>
Lu chtú</w>
K T
J PEG</w>
Inno vation</w>
Gu arante
Ch ipir</w>
C untais</w>
Bur eau</w>
B ai
Ad ap
war ning</w>
tuair iscí</w>
trédhearc acht</w>
tra vel</w>
tei lí
t aisc
substitu ted</w>
struchtú ir</w>
speci fications</w>
seacht aine</w>
scrú daithe</w>
sc airí</w>
sc airt</w>
sc ailt</w>
s la
remain ing</w>
ra mh
pháirt íochtaí</w>
ou th
osrú chán</w>
on ta</w>
oir measc</w>
mí re</w>
muta tis</w>
m eicn
líon raí</w>
li a</w>
ipotenti aries</w>
gc ion</w>
fú thu</w>
f eis
es tions</w>
eol a</w>
en ed</w>
declar ations</w>
dead line</w>
d p
con str
chlá raithe</w>
c at</w>
author ized</w>
ais on</w>
ad mh
_en. htm</w>
S ula</w>
Ro cht
R ain</w>
Pho to</w>
Open ing</w>
M ob
I arr
G abhann</w>
Depart ment</w>
Breis eáin</w>
AI THE</w>
19 .11.
1 ú</w>
éil imh</w>
ur raim</w>
ul tan
u tility</w>
t t</w>
supp lies</w>
réamh amhairc</w>
research ers</w>
prov inces</w>
pos se
pl é
mh acht
m or</w>
k g</w>
ghear án</w>
fun ded</w>
fh omh
f illed</w>
ensu red</w>
e on</w>
docu mentation</w>
cor ri
con version</w>
con struction</w>
compr ise</w>
chó mhargaidh</w>
ch áipéis</w>
bhrú ite</w>
b príomh
ar ise</w>
ali gn
af oirt</w>
a Ã</w>
Sy mb
Str ai
Sc or
Pau l</w>
Mar ie</w>
I TA
GD P</w>
Dra w</w>
Cli ant</w>
CO SME</w>
Bro w
3 5
201 9</w>
2 12</w>
ál tas</w>
wh ich
tuair isc
toir te</w>
thionsc naimh</w>
tag tha</w>
t end
shain ítear</w>
reti rement</w>
pre ne
nuashon rú</w>
méad aithe</w>
multi ple</w>
mat ch</w>
lip éadú</w>
la tor</w>
is lands</w>
inspec tion</w>
i as</w>
h a</w>
grow ing</w>
g Coinbhinsiún</w>
f inn
dú inn</w>
dis mis
dh iosca</w>
cú igiú</w>
comh oiriúnach</w>
cha tagóir</w>
ch inn</w>
c c</w>
athstruchtú rú</w>
ars an
approxim ation</w>
anail í
alterna tive</w>
air íonna</w>
af for
Togh faidh</w>
Tal mhaíochta</w>
Sp e
Simp li
Partic ip
Over write</w>
O ileán</w>
O R</w>
Ke ep</w>
J ap
G RA
G L</w>
Frea gra
Ex plan
Cú lra</w>
C ir
Advis ory</w>
19.11. 1979</w>
úsáid irí</w>
ín te</w>
í d</w>
tra s-
regula tory</w>
pop up</w>
or al</w>
oper ator</w>
oll ar</w>
n- íocaíochtaí</w>
n- ábhar</w>
measta cháin</w>
mb a</w>
m aoine</w>
li om</w>
lea ve</w>
iú lachtaí</w>
imp acts</w>
im scrúdú</w>
il bhliantúla</w>
gC OMH
for imeal
f eir
en ing</w>
eaf ter</w>
ea sa</w>
dis abilities</w>
director ies</w>
d tionscnamh</w>
d ir
cultú rtha</w>
contrá rtha</w>
comhchuibh iú</w>
chuim sitheach</w>
ata dáin</w>
all mhai
ag ents</w>
ad mission</w>
T el
Sign ature</w>
Ser ver
Seirbhí s</w>
QU EEN</w>
Mea mram</w>
L ár
Inter face</w>
I ts</w>
High light</w>
C el
Ba sic</w>
BHR Í</w>
BH EI
B EL
Astr áil</w>
ur rama
ur ban</w>
u ser
tw o-
tw el
teilí ní</w>
sy ner
sim ultan
s íniú</w>
rian úil</w>
re tain</w>
prov ision
pic ture</w>
oblig ed</w>
nd l
n al
mb eartais</w>
h éifeachtach</w>
gn ách</w>
gen dum</w>
f iscal</w>
dí fh
direc tion</w>
design ate</w>
connec tions</w>
chr íocha</w>
c ar</w>
an tas</w>
Under takings</w>
T err
S ioncr
Phol ainn</w>
Neamh ní</w>
Mi cha
M EMB
Institiú id</w>
H er
CA P</w>
C abh
Augu st</w>
Ard-Stiúrth óireacht</w>
Ar eas</w>
Ain til
v ine</w>
repres ents</w>
qual ities</w>
posi tive</w>
nd lúth
n í
n Uachtarán</w>
m ic</w>
in teach</w>
iar mh
ghn é</w>
gaol mhara</w>
fr onti
fad téarmach</w>
f requ
en tar
decision making</w>
de tection</w>
d í</w>
confi gu
comhair liúchán</w>
comh ordaithe</w>
co inne</w>
co astal</w>
cir t</w>
certi fication</w>
cer tificates</w>
c ach</w>
aic m
T ré
S Ã</w>
RI AL
Mar a</w>
K B
Indi ach</w>
De fin
Comh pháirtíochta</w>
Coir eallach</w>
Ak onad
Aintil lí</w>
AI S
A T
22 6</w>
2 13</w>
17 8</w>
sh lí</w>
preser ve</w>
n óidh</w>
min im
mh ir</w>
med ical</w>
la ys</w>
l far</w>
iti z
h imthosca</w>
gcai teachas</w>
gairm iúla</w>
fle et</w>
fil ename</w>
fho inse</w>
establish es</w>
e g
difr íochtaí</w>
defin i
comhair leach</w>
co in
cho thabháil</w>
bhu a</w>
ath ainmniú</w>
addres ses</w>
_ Help</w>
Y e
Techn ical</w>
Se isiún</w>
Pol ainne</w>
P RI
Me dia</w>
J U
Ini ti
IN TER
Guarante e</w>
G ERMAN
Fre e
For braíochta</w>
D ue</w>
Cal Imp</w>
C Ú
Bu t</w>
Agre ements</w>
15 4</w>
130 1</w>
. The</w>
- shonracha</w>
á d</w>
Ã³ r
ur i</w>
timpeal lachta</w>
ta bh
st ádais</w>
sho ws</w>
rai d
prov ince</w>
ph ars
p ap
necess arily</w>
mb ei
li aison</w>
h oibrithe</w>
gear ach</w>
fhorm áid</w>
e ters</w>
e es</w>
dlú s</w>
diffic ult</w>
declar es</w>
d eighil
cy cle</w>
cu stam</w>
coun ter
chomh choiteann</w>
bel ong
b án</w>
aon t
_ Ná</w>
Tug tar</w>
Soc rú</w>
O TI</w>
Mis sing</w>
M S
III- 26
H istory</w>
28 3</w>
éil íonn</w>
téam acha</w>
tást ála</w>
tion s
tea sa</w>
sonra íochtaí</w>
sof tware</w>
rug aí</w>
recomm end</w>
pla ys</w>
pass eng
om b
ni vers
lé inn</w>
invol vement</w>
imp eal
ic o</w>
i oc
hy dro
h Ard
gh eal
fó nta</w>
fh iontair</w>
drug s</w>
difri úla</w>
d leathach</w>
chomh shaol</w>
ch ro
c aill
bar r</w>
ast uithe</w>
_ View</w>
Turk ish</w>
TH E
T EA
Seol ta</w>
S raith</w>
S ound</w>
Rom ania</w>
Re placed</w>
Rap porte
O ld</w>
Mion sonraí</w>
Micha el</w>
Ma ximum</w>
Lagh daigh</w>
Inter nal</w>
IN T</w>
Fu aime</w>
Feidhm chlár</w>
F TP</w>
Euro stat</w>
Du tch</w>
Dearbh aíonn</w>
D ré
7 a</w>
óir dheon
ío la</w>
é ine</w>
ver ify</w>
tra ffic</w>
tar .
t é</w>
sá r
seach trach</w>
s an
rá ma</w>
proce ed</w>
pi ph
os anna</w>
nam ely</w>
n- ainmniú</w>
n each</w>
mh aoin
member ship</w>
il te</w>
il taobh
h Abhcóidí</w>
gc istí</w>
féach faidh</w>
fhíor dheimhniú</w>
dobhar shaothrú</w>
di gn
contr actual</w>
chos anta</w>
c amera</w>
au thentic
ast ri
ach om
U M</w>
Sub section</w>
Se inn</w>
SO ILSE</w>
S t</w>
Réim se</w>
O I
NAI DH
L it
Idir náisiúnta</w>
F rith
F UN
EU -
E il
Ch at</w>
CR ÍOCH
Bh ulg
Ad di
2 16</w>
ó dh</w>
á isiú
val u
urg ent</w>
un icode</w>
tor -
thre oirlínte</w>
t ing
t Atlantach</w>
st op</w>
she omraí</w>
sc oir</w>
s ing
s anc
reme dy</w>
rejec ted</w>
re ly</w>
port ant</w>
oib iach
mhu ir</w>
le vi
ith eoir</w>
ith e
gh r
gener ated</w>
form alities</w>
fhorb artha</w>
fh ios</w>
facilita ting</w>
f áth</w>
expl an
exem pt</w>
ent y-
d tionól</w>
compens atory</w>
comh ord
co inn
classi fied</w>
bi lateral</w>
availa bility</w>
Uimh riú</w>
Re p
Pre par
Pr om
NU TS</w>
Mo dúl</w>
M íniú</w>
M il
Im age
FH E
Explan ation</w>
Ev ent</w>
D iú
CO OPER
Bus iness</w>
ACH T</w>
22 9</w>
19 58</w>
úsáid each</w>
ÍO MH
Áir ítear</w>
withdraw al</w>
w in
uran ium</w>
tistic í</w>
t áil
sá súil</w>
se ment</w>
se isiúin</w>
sao bhadh</w>
réamh dhré
rial achas</w>
plo ad</w>
pan el</w>
ng eall</w>
mharg aí</w>
mai s
investi gation</w>
inde x
i des</w>
head ings</w>
h íomhá</w>
h Uachtarán</w>
gn é
fheidhm chláir</w>
farm er</w>
eá na</w>
digi tal</w>
d ang
chu sp
cap abilities</w>
caighde ánach</w>
brea k
bh onneagair</w>
b ic</w>
author ization</w>
alloc ations</w>
acces sible</w>
_ s
U SA</w>
RÍ ON</w>
Re store</w>
R éad
P M</w>
Mem ory</w>
Mar ta</w>
Lea su
Fre edom</w>
De stination</w>
Cú l
COOPER ATION</w>
CHU N</w>
Bh inse</w>
BAN RÍON</w>
25 8</w>
údar óidh</w>
íoch as</w>
tal s</w>
symb ols</w>
struchtú racha</w>
struc tured</w>
str ong</w>
safegu ards</w>
pursu ance</w>
próis eáilte</w>
pos sibilities</w>
ph ac
ow nership</w>
op h
ola b</w>
o on
ng abh
mhéad aithe</w>
lu as</w>
l è
i _
h ath
ghear rthaisce</w>
gh nó</w>
g áis</w>
fan faidh</w>
eo ireacht</w>
enlarg ement</w>
eirspic t
déan ann</w>
deri ved</w>
d teachtaireachtaí</w>
coir iúla</w>
chó naithe</w>
chomh altai</w>
bh ileog</w>
bankno tes</w>
b rai
b ealach</w>
aud its</w>
at áin</w>
ar ding</w>
alcó il</w>
achom air</w>
We ek</w>
W el
Sh ape</w>
S la
R ÍOCHT</w>
P E</w>
O ffic
N ice</w>
N ic
I AL</w>
G R
D ro
Cu imhne</w>
Chr íoch
B ar</w>
200 1
19 4</w>
íol ta</w>
z a</w>
tho graí</w>
th omhas</w>
si l
sec toral</w>
sc reamhuisce</w>
recomm ended</w>
radi o
prohib ition</w>
pro xy</w>
pre ci
pay ing</w>
osrú cháin</w>
mi xed</w>
mbo x</w>
lu acha</w>
ish ment</w>
inter oper
inten d</w>
inser t</w>
iniúch taí</w>
ic it</w>
i ght</w>
h on
gla och</w>
exp enses</w>
dré ach
d air</w>
cáil íochta</w>
chúl ghairm</w>
chec king</w>
chea p</w>
ch rea
bur den</w>
bhs áil</w>
ain éil</w>
ail ing</w>
aighde oirí</w>
Up on</w>
Un ion
Su per
Ro tate</w>
M Á
Liotu áin</w>
L ar
Ion straimí</w>
In niu</w>
FE D
Co inníollacha</w>
Belgi an</w>
6 a</w>
6 -
130 5</w>
ún aí</w>
y e</w>
tacho graph</w>
sp aces</w>
sign atory</w>
sh rianta</w>
scoil eanna</w>
sc ru
sain cheist</w>
s u</w>
rian adh</w>
resi ding</w>
res ol
po st
plic ate</w>
pat ent</w>
oil s</w>
nu tri
mark ed</w>
lu aitear</w>
j our
iom lán
imeád faidh</w>
gc ineál</w>
g á
fr ance</w>
eng ine</w>
ean g</w>
dign ity</w>
coordin ated</w>
comhdh álacha</w>
c il
bhain c</w>
bh óthar</w>
ber t</w>
at ch</w>
alloc ate</w>
abh eith</w>
_ G
Su im
Sp eis
S em
S O</w>
Rem ember</w>
Re start</w>
Rap óir
POLI CY</w>
NAIDH ME</w>
Mí reanna</w>
Mh eán
M í</w>
K olab</w>
IP A</w>
H ealth</w>
Go ogle</w>
G en
Cu t</w>
BH AIN
AC U</w>
3. The</w>
28 0</w>
00 000</w>
0 7
0 3
ís eal</w>
w ers</w>
uimh riú</w>
trá tha</w>
sol ely</w>
samh lacha</w>
repres entation</w>
rec orded</w>
phr aghas</w>
os ú</w>
no tably</w>
ner ships</w>
negoti ate</w>
n n</w>
m aoirseacht</w>
l éid</w>
it eacha</w>
h abairt</w>
form ing</w>
er -
enter ing</w>
ent re
en e</w>
en dar
dt éann</w>
daingn iúcháin</w>
cumars áid</w>
cu airt</w>
conf erence</w>
coir iúil</w>
clo í</w>
chum ais</w>
chomh adlann</w>
charac ters</w>
ch abh
bain te</w>
U kr
Publ ications</w>
Ma astri
Lán chumh
Gl obal</w>
Fol low
Cro ati
Antar c
ëan far</w>
éiceach órais</w>
ál ann</w>
tw enty-
to bh
th ionó
targe ted</w>
sh ann
sa i</w>
s p</w>
rion ad</w>
pionó s</w>
photo s</w>
perman ently</w>
par king</w>
p obail</w>
p es</w>
neamh aird</w>
mov able</w>
mon at
me ets</w>
ith eoirí</w>
introduc ing</w>
ic iúil</w>
iarra taí</w>
h íocaíochta</w>
gcinn tí</w>
fos ter</w>
ff er</w>
fac tory</w>
dlúth pháirtíocht</w>
dl istea
diff erences</w>
decision -
chu óta</w>
chri p
chl ó
cheann teideal</w>
ch ol
ch an</w>
b P
ast ail</w>
ar om
an aí</w>
am uigh</w>
adap t</w>
V o
Sp lit</w>
Ró imh</w>
Parliam entary</w>
Organiz er</w>
N am
KChar select</w>
In de
In c</w>
H ead
Gre en</w>
Gi uir
GERMAN Y</w>
Cop ying</w>
Ch omhair
C itiz
C M
Ber lin</w>
At osaigh</w>
Ad dres
2 19</w>
óip eanna</w>
thea staíonn</w>
taisp eáin</w>
t ol
struchtú rtha</w>
se x
scrú duithe</w>
rúnd a</w>
of a</w>
nái the</w>
n om
n eigh
mhu in
libr ary</w>
le is
institiúid eacha</w>
in stall</w>
ghlac tar</w>
gh eogra
gh adh</w>
g iotán</w>
fó ill</w>
féidear tha</w>
fé in
fol low</w>
f leasc</w>
exclu sively</w>
eagr aithe</w>
dist ance</w>
dh och
dar ás</w>
chó mhargadh</w>
chem ical</w>
ca omh
bhar shaothrú</w>
at tainment</w>
an tly</w>
adap ted</w>
_S end</w>
_ IBM-8
Thu g</w>
The re
Rialach ân</w>
O -8859-
Nó taí</w>
N I
I orua</w>
F S</w>
CAI L</w>
C eu
20 8</w>
20 .
δ η</w>
y i
uimh reacha</w>
tos ú</w>
tion chair</w>
termin al</w>
syner gies</w>
sr l</w>
sh ap
scri bhinn</w>
s k</w>
s ail</w>
qu ery</w>
pland aí</w>
pl ó
oib reoir</w>
neamhspleá cha</w>
mov ements</w>
mb n
l úil</w>
integr al</w>
in ts</w>
in ing</w>
im migration</w>
gC airt</w>
g lan
f acts</w>
evalu ations</w>
eala dach</w>
dh omh
chru ach</w>
char bóin</w>
certi fied</w>
aighde án</w>
ad or</w>
ach tai</w>
UR L
Th i
ST Á
Re sul
PK CS</w>
G a
Fac ility</w>
F _
El ec
Cur sor</w>
Ch ú
Ch e
Ceu ta</w>
CB T</w>
24 0</w>
189 b</w>
18 8
18 .
17 1</w>
0 5
z en</w>
wh ite</w>
wel f
téarm acha</w>
trea ties</w>
th óg
shlá nú</w>
sci ence</w>
ri ocht</w>
radi o</w>
r om
o ath</w>
neamh ní</w>
inde x</w>
gu l</w>
gro undwater</w>
gabh álacha</w>
fí se</w>
f ran
eas es</w>
dou ble</w>
cú irteanna</w>
confi gure</w>
co ir</w>
chl áir
chan nel</w>
bhfuil tear</w>
athchóir ithe</w>
adop ts</w>
abs olute</w>
SOL ID
Roth laigh</w>
R eachta</w>
Po litical</w>
Plug ins</w>
Me tho
L a</w>
Co inne</w>
Bh li
B í</w>
Au to</w>
Aic me</w>
Accoun ts</w>
A i
3. 1</w>
0 a</w>
É ag
tr ina</w>
thair g</w>
tea l</w>
sup pl
st ration</w>
sp ásanna</w>
sao ire</w>
respec ts</w>
rea lis
p un
ou termost</w>
o ta</w>
n- acmhainní</w>
n ap
n an</w>
n Gníomhaireacht</w>
mon th
ll ec
l áid
l la</w>
geal lsealbhóirí</w>
gceang las</w>
fíor -
fre ely</w>
foir eann</w>
ff s</w>
each traigh</w>
deg ree</w>
cuim siú</w>
comp lied</w>
at áirg
air le</w>
R abh
Noti fication</w>
Java Script</w>
Iompór tá
Ign ore</w>
I con
I LI
ER S</w>
Dra ft</w>
Dial og</w>
Develop er</w>
Co uldn</w>
Cab _h
CON RADH</w>
Ath nu
24 8</w>
éir iú</w>
zz le</w>
w ea
ur scaoileadh</w>
tiú ir</w>
tic a</w>
thrád áil</w>
thresh old</w>
thos aíochtaí</w>
thei p</w>
te s
scrip tions</w>
scho ol</w>
ref ers</w>
progres sively</w>
pro tocol</w>
person ality</w>
pay able</w>
or duithe</w>
ng eilleagar</w>
multi lateral</w>
m raim</w>
leith id</w>
iú scairt</w>
in cen
g eilleagar</w>
entre prene
en velope</w>
emen tioned</w>
depend ent</w>
d Ã</w>
d teastaíonn</w>
cé atadáin</w>
comhré ireach</w>
chl Ã</w>
ch or</w>
cea se</w>
b in</w>
b ear
There fore</w>
Ta ke</w>
T ex
T _
St _
S órtáil</w>
S now</w>
No tes</w>
M oun
M ENTS</w>
La un
L on
F acs</w>
Ex am
Dec lar
D em
D ER</w>
D B</w>
Ch air</w>
Cab_h air</w>
C athair</w>
B Y</w>
Aon tas
8 00</w>
13 .
10 -
Ãº n</w>
under standing</w>
tt ons</w>
tras h</w>
te ir
sh é</w>
saor áid</w>
s eachta</w>
s bar</w>
rú igh</w>
prim arily</w>
plean áil</w>
ph ase</w>
p n
oir d</w>
non- compliance</w>
n- institiúidí</w>
mheast óireacht</w>
mb ealach</w>
m ill
léir ítear</w>
léas anna</w>
li e</w>
le y</w>
key board</w>
j an</w>
iúlt aigh</w>
inte rest
hin díreach</w>
handl ing</w>
h om
ghníomh óidh</w>
fhreagra cha</w>
ex tra
ev olution</w>
ea lai
e dule</w>
di an</w>
dh línse</w>
dep ending</w>
de scribed</w>
d tionscadal</w>
d easc</w>
cinn ti
ch athaoirleach</w>
cap ita</w>
bl in</w>
bhfaigh idh</w>
aith eadh</w>
aif ead</w>
agg reg
aff ects</w>
acho imre</w>
Teacht aireachta</w>
Se án</w>
S D</w>
RI A
PHOB AL</w>
P op
M éar
I C</w>
G abhfaidh</w>
F ill</w>
Eng ine</w>
D lúth
C o</w>
B inse</w>
árach ais</w>
Á tha</w>
ver th
trea ted</w>
transla tor-
ti le</w>
subsequ ently</w>
ph ilippines</w>
ori entation</w>
off ers</w>
negoti ated</w>
neg ative</w>
medi um-
lá mh</w>
limi tation</w>
leanún achas</w>
le ft
le -
inn eall</w>
im ní</w>
ideach ais</w>
h ead</w>
h az
gh abh</w>
gcomh lach
fisher men</w>
feidh meoidh</w>
en ters</w>
eir gí</w>
ea t</w>
dimen sion</w>
d reas
coordin ating</w>
comh ad
coit eanna</w>
coh erence</w>
cl eachtas</w>
cap able</w>
c or</w>
bhun táiste</w>
ai the
agre es</w>
ab road</w>
Trans f
S W
REC ALL
P res
Out look</w>
Modi fy</w>
MEA BHR
F onts</w>
Comh aontaíonn</w>
Ath luchtaigh</w>
Ar d</w>
Al bum</w>
Ac ts</w>
AIR T</w>
A TIONS</w>
áid ire</w>
y a</w>
v ille</w>
ul ts</w>
transm itted</w>
translator- credits</w>
time table</w>
thu iscint</w>
th ábh
sh ape</w>
sc oil</w>
p obal</w>
ne ofar</w>
mí leata</w>
llec tual</w>
it éir</w>
it éar</w>
intro duce</w>
in ven
head ers</w>
h Oileáin</w>
gairm iúil</w>
g ency</w>
fi gure</w>
dtag ann</w>
coun ter</w>
col ún</w>
cl ar
be o</w>
allow ances</w>
ac cu
_B ain</w>
Wh ile</w>
TA CAIL</w>
T oirm
Simpli fied</w>
Plug in
N aisc</w>
Main tainer</w>
Iar scríbhinní</w>
F und
Du blin</w>
Counc il
Comple ted</w>
Ch on
Ca tagóirí</w>
C T</w>
Blu e</w>
BEL GI
Atlan taigh</w>
2 14</w>
16 2</w>
ío gair</w>
í l
áit eanna</w>
x es</w>
wi der</w>
tuair isciú</w>
ti m</w>
thion char</w>
teicneola íochta</w>
suffici ently</w>
soc io
sh ás
sain tréithe</w>
rocht ain
rann pháirtíochta</w>
pri ontála</w>
preven ting</w>
piph any</w>
investig ations</w>
inter nation
id en
gram s</w>
gh lan
foirm iúil</w>
fi giú
fh illteáin</w>
exclu ded</w>
ex ported</w>
elimin ate</w>
eag án</w>
dp i</w>
discu ss</w>
dis h</w>
dear bhuithe</w>
co ibh
chú ig</w>
cho isc
ch án
ch ineálacha</w>
c áin</w>
bro ken</w>
ate ver</w>
ar ms</w>
am -
_ r
Tran sport</w>
T om
S ending</w>
R íomhair
R en
Leasu achtarán</w>
I d</w>
FED ERAL</w>
F áil</w>
C lu
As chur</w>
13 11</w>
ó il</w>
íoc faidh</w>
w ide
verth eless</w>
u late</w>
there on</w>
theicneola íoch</w>
thac aíonn</w>
te sting</w>
stric tly</w>
so char</w>
se x</w>
r on
par se</w>
op es</w>
ng réasán</w>
meas ann</w>
m .
ke e
ist or
inte ger</w>
insi de</w>
idirdh ealai
i es
i bh</w>
gear rthaisce</w>
fin dings</w>
fh íon
ez ing</w>
et te</w>
em on</w>
ea ble</w>
dó cha</w>
dío lacháin</w>
discrimin atory</w>
dec line</w>
cur sor</w>
chú iteamh</w>
chumh daítear</w>
chríoch nú</w>
c únaimh</w>
bo sca</w>
applic ants</w>
alter nate</w>
all ann</w>
acqu ire</w>
Wr ite</w>
Spáinn is</w>
Slov ak</w>
Seol tóir</w>
SOL V
O ri
Limist éir</w>
ISO -
HA V
D i</w>
COMH DH
C ai
BHEI TH</w>
Ardrú naí</w>
A ir</w>
28 4</w>
22 2</w>
úsáid eadh</w>
úráin iam</w>
úr ca</w>
ín each</w>
w ait</w>
truail lithe</w>
ton s</w>
son rófar</w>
soic ind</w>
scaoil te</w>
páirtea nna</w>
preven ted</w>
p el
most cat</w>
mea sú
main ly</w>
ló dáil</w>
left mostcat</w>
iniú int</w>
in tuigthe</w>
gnó thaí</w>
ghníomh aíochta</w>
g léas</w>
fh íon</w>
f ei
eoch racha</w>
dé ine</w>
dramha íola</w>
dhú ile</w>
cumh daithe</w>
cum raíochta</w>
comhair leacha</w>
co se</w>
co d</w>
chuim síonn</w>
c ent</w>
back end</w>
b praghsanna</w>
ar t</w>
al t</w>
ais in
acht ófar</w>
W all
U L
Speis ialta</w>
S r
Rial ú</w>
Re ply</w>
P ack
Idir lín</w>
Iar thar</w>
ISI ALTA</w>
GO VER
Fhor bairt</w>
Ex ten
E ola
Du chy</w>
Cli ath</w>
Bruis éile</w>
B úrca</w>
22 4</w>
íoc adh</w>
under st
ton na</w>
the ir
scru tin
sc éala</w>
prin ted</w>
per ature</w>
organ s</w>
ola saí</w>
off ence</w>
oc curren
nu álacha</w>
mi an
mh ainn</w>
medium- sized</w>
liqu id
li abilities</w>
le oir</w>
ir i</w>
int leach
in déanta</w>
in directly</w>
ich í</w>
hea vy</w>
ghn ó
fore stry</w>
ear ra</w>
dlú ithe</w>
dl íod
de ployment</w>
co inniollacha</w>
chumars áide</w>
chead aítear</w>
breithiún acha</w>
bhar úlacha</w>
bain e</w>
au thor</w>
ag s</w>
ad óir</w>
a e</w>
Ung áir</w>
Teor ainn</w>
Sen der</w>
Sam ba</w>
Re set</w>
Q Shortcut</w>
Plen ipotentiaries</w>
Mo zilla</w>
Mic ro
Meas ann</w>
Lánchumh achtaigh</w>
Indi ana</w>
Iar ra
Group W
GI F</w>
G EAR
F É
F oc
D j
D aon
Crip tiú</w>
Col l
C all</w>
9 a</w>
3 7
3 52</w>
25 9</w>
25 2</w>
198 3</w>
- related</w>
x t</w>
weigh ted</w>
view ed</w>
tim ely</w>
te u
straité iseacha</w>
sta y</w>
shu iteáil</w>
se o
rú páil</w>
organ ise</w>
nivers ary</w>
nasc adh</w>
n on</w>
n institiúidí</w>
maj e
maje ure</w>
lu a</w>
l -
is eat
h oiriúnuithe</w>
gcuid eachta</w>
fó in</w>
fhrea gairt</w>
fh eiceáil</w>
einti teas</w>
dt ei
dt air
direc tor</w>
cs v</w>
co isc
chun tais</w>
ceang al
cao ga</w>
b on
at á
al ter</w>
ais íocaíocht</w>
TAI N</w>
Sín each</w>
Seirbhí sí</w>
S or
Mea sures</w>
For scríobh</w>
E duc
Comh éadan</w>
Cho im
Bus y</w>
24 3</w>
19 3</w>
, 5</w>
í dh</w>
ála dh</w>
ur se</w>
ual ú</w>
tras náisiúnta</w>
tr ain
titu de</w>
tairisc intí</w>
t í
su bl
strea m</w>
sti c</w>
si a_</w>
sett l
secre t</w>
sain ráite</w>
s ought</w>
s ort</w>
rial aíonn</w>
ref rain</w>
pu ts</w>
pró tac
pl ants</w>
pat ents</w>
ng á</w>
n- ionadaithe</w>
láithre án</w>
lu ais</w>
leoch ail
leith ead</w>
leamhn án</w>
l ying</w>
is eadh</w>
gh las
gh eobhaidh</w>
fi osc
expres s</w>
ess ing</w>
ean ais</w>
dí s</w>
discus sion</w>
commun ities</w>
comh fhogasú</w>
comh ar
chion roinnt</w>
chair man</w>
ch ase</w>
bhra th</w>
bhail íocht</w>
bh ailí</w>
at o
ar a</w>
acc redi
_ File</w>
Y a
Wr itten</w>
Trea ty
R ead
Príomh bharra</w>
Plasm a</w>
P la
Mor eover</w>
Mon itoring</w>
F aireach
BO URG</w>
B éarla</w>
Aisghair tear</w>
éagsú lachta</w>
áir íre</w>
Á IN</w>
thre isiú</w>
sín íodh</w>
sá ruithe</w>
sp áis</w>
s w
reser ved</w>
pollu tion</w>
part nerships</w>
oi g</w>
o x
na íodh</w>
mhain ne</w>
m ainn
lo ads</w>
le t</w>
is ot
ir d</w>
influ ence</w>
ineál cheadaithe</w>
in imirce</w>
in im
i gn
h ard
grú chán</w>
ghn ímh</w>
gceann teideal</w>
g abhfaidh</w>
forimeal laí</w>
for ces</w>
fhrea grach</w>
fhrea gr
dhí chur</w>
daonlath ais</w>
críochn aitheacha</w>
contro ll
consider ations</w>
compuls or
co- financing</w>
co st
challen ge</w>
ch untas</w>
c aingean</w>
ath ró
an o</w>
af raigh</w>
ad just</w>
_ Amharc</w>
X I</w>
X EM
T og
T iom
T W
Sp ace</w>
S ábh
RECALL ING</w>
R iar
P earsanta</w>
P A</w>
MD 5</w>
L EAG
Fra me</w>
F aigh
DV D-
Ac mhainní</w>
A mb
A TED</w>
ór tála</w>
éil ítear</w>
u bh
tást álacha</w>
thur ais</w>
threa ts</w>
thr á
th es
t down</w>
sur ve
st ro
speisial aithe</w>
si z
sett led</w>
ser i
sanc tions</w>
s ingly</w>
s eas</w>
ri gh</w>
raith eoireachta</w>
pea ce
ne ver</w>
mo ving</w>
measú nuithe</w>
measta chán</w>
leg ality</w>
it ar
instal lation</w>
imir ciú</w>
gcomh pháirt</w>
gcar tlann</w>
for mhór</w>
fhoirm eacha</w>
ev ing</w>
ec tor</w>
dl ite</w>
dhí lis</w>
cú iteamh</w>
correc tion</w>
con ciliation</w>
col labor
chultú ir</w>
certi fying</w>
cead anna</w>
bi ological</w>
bh eartaithe</w>
be havi
b ailte</w>
alcoho lic</w>
advanta ge</w>
_ Roimhe</w>
_ Gach</w>
W ord</w>
Tra de</w>
Sta tis
Sc éim</w>
PROTOCO LS</w>
ON O
O F
Mh álta</w>
Li ght</w>
Lay er</w>
LU XEM
Ite ms</w>
H o
Comh líon
Categ ories</w>
4 a</w>
27 3</w>
13 2</w>
wh atever</w>
us age</w>
the -
sti l</w>
si x
re t
re li
r áin</w>
produc ing</w>
oon _</w>
no ver</w>
léir scaoileadh</w>
léir ithe</w>
irregular ities</w>
increa singly</w>
idir phlé</w>
idir ghabháil</w>
i bhr
horiz ontal</w>
gra di
gc ri
fho ghlaim</w>
feabh sú</w>
estima ted</w>
díosp óidí</w>
d omin
complem entar
ch áis</w>
c s</w>
br ac
bhfost óir</w>
bhf eithic
b lo
an ese</w>
amer oon_</w>
all ach</w>
aif each</w>
_ Previous</w>
_ Eile</w>
Tá bla</w>
TI FF</w>
TAC AL</w>
T Y
T F</w>
Sch eme</w>
S af
Rogh a</w>
Rem in
O TH
In put</w>
Id enti
GroupW ise</w>
FRE N
EP SO</w>
COMH AR</w>
CA TION</w>
Au tomatically</w>
Al low</w>
19 9</w>
19 67</w>
- -
íoch t
w ri
uas mhéid</w>
tábh achtaí</w>
tei dlíochtaí</w>
t saothair</w>
suntas acha</w>
sin ge</w>
si úil</w>
sho p</w>
seirbhí seach</w>
sam plaí</w>
sain ordú</w>
rú in</w>
recipi ents</w>
prosp er
pl e
op tim
nglac tar</w>
ngear án</w>
nd ío
medi um</w>
me dic
mac ro
léar gas</w>
las h</w>
lai th
h ionadaithe</w>
gu res</w>
gre es</w>
ghníomhair eachtaí</w>
fhág áil</w>
f ór
f eola</w>
f eitheamh</w>
eth ing</w>
endar s</w>
eadh on</w>
dé thaobh
dis eases</w>
dhío sp
dh ear
complem entary</w>
chó naíonn</w>
choth rom</w>
c am</w>
c ail
bun aíochta</w>
bh aile</w>
b ab
ag ent</w>
ag am</w>
admis sible</w>
Wh ite</w>
TH A</w>
T Ú
St á
Saoir sí</w>
S w
S Q
Ríomhair e</w>
Per missions</w>
Pe ter</w>
P lan
P DF</w>
Lay out</w>
LE X</w>
L ow
Jo b</w>
H al
E L</w>
Do bharshaothrú</w>
COMM IS
CH L
B all</w>
23 .
Údar áis</w>
Ã³r tÃ</w>
vere ign</w>
un able</w>
u aireanta</w>
thaispeán tar</w>
suite áilte</w>
str ong
sti pu
relev ance</w>
on lainn</w>
oir eann</w>
neu tr
mol ta</w>
mh acht</w>
manufac ture</w>
ma xim
m ú
it u
ir on</w>
ion s
ion aid</w>
idirdh ealaithe</w>
ho od</w>
g con
ffic king</w>
exp ire</w>
encryp tion</w>
dheon ófar</w>
dh lit
de v</w>
correspon ds</w>
ch apter</w>
calcu lating</w>
bhf ó
ati sed</w>
aon taigh</w>
af a</w>
ac knowle
ac a
Strai té
Sh e
S om
S iom
S ear
MEABHR Ú</w>
M ON
Lin ux</w>
Leag tar</w>
Institu te</w>
H au
F our</w>
F la
EACH TR
Dele ted</w>
D ou
Chamb er</w>
Ch ru
Cead aigh</w>
CON CER
CHÓ NAIDHME</w>
Bhulg áir</w>
Appl ications</w>
A ON</w>
25 3</w>
00 59</w>
z ip</w>
un employment</w>
th aifeadadh</w>
ta data</w>
t omh
sh ops</w>
sen ding</w>
r in
pos itory</w>
phri ontáil</w>
person nel</w>
p atr
oi th
mai sc</w>
m ur
m ul
lay out</w>
laun ched</w>
itar ian</w>
inter ru
inm liosta</w>
illte Ã</w>
for th
follow -up</w>
f lo
estima te</w>
el ux</w>
díol mhaithe</w>
dh íol
deal ing</w>
compulsor ily</w>
coh erent</w>
b pointí</w>
an der</w>
al ina</w>
ain ní</w>
addres sing</w>
Wid get</w>
Us age</w>
Róm áin</w>
Réig iúnaí</w>
Res olution</w>
Qu ick</w>
Per man
P ay
P atr
Ma p</w>
I MH
Europ ean
Declar ations</w>
C NA
Bo ttom</w>
15 9</w>
í gh</w>
y our
vo ta</w>
vi tal</w>
tri om
thi as</w>
te le
te ch
ta e</w>
supplem entary</w>
sm aoin
s ,
resid ent</w>
r íonn</w>
pur chase</w>
per s
patter n</w>
par ameters</w>
or ra</w>
on t
observ ed</w>
min is
mh oltaí</w>
mh ais</w>
mbain fidh</w>
loc ally</w>
l â
key word</w>
ith m</w>
inn ill</w>
high ly</w>
hArd pháirtithe</w>
gu idance</w>
gi an</w>
ghla s</w>
g reat</w>
fhoil sithe</w>
f ro
er al</w>
eo ga</w>
dhualg ais</w>
d ain</w>
cultú r</w>
compo unds</w>
comhchuibh ithe</w>
ch ur
benef iting</w>
b í</w>
at ailí
ang le</w>
al á
aill te</w>
acmhainn eacht</w>
abol ished</w>
_ Comhad</w>
Wor king</w>
WH ER
Un read</w>
STA TES</w>
SP EC
SE O</w>
S oli
Rus sian</w>
Pr im
Modi fied</w>
Mh árta</w>
M ais
Inter institutional</w>
Fund -specific</w>
FIN AL</w>
EC ONO
E piphany</w>
D -</w>
Con tent</w>
CONCER NING</w>
CO UR
B lan
Ardrú naíocht</w>
Aontas Eorpach</w>
Antar tach</w>
7 20</w>
29 4</w>
26 7</w>
19 51</w>
vi ation</w>
u ch
tásc ach</w>
trédhearc ach</w>
tromchú iseacha</w>
tionscla íoch</w>
thionsc al</w>
th án</w>
te ll
tar es</w>
t l
specific ally</w>
socie tal</w>
sign ing</w>
sh ed</w>
s lo
requ is
rela tive</w>
recogn ises</w>
rec ording</w>
pro of</w>
pháir tigh</w>
ol or</w>
oi gh
m aoir
láimh seáil</w>
lá imhd
lith eachta</w>
le .
har ov</w>
ghabh álacha</w>
fó inteach</w>
for est</w>
fail ing</w>
fadh b</w>
ecosy stems</w>
easi er</w>
ear nála</w>
dhl eacht</w>
dg ing</w>
de mo
crea tive</w>
comh shaol</w>
chúr saí</w>
ceann teideal</w>
bo gear
bea tha</w>
an g</w>
aim ing</w>
ag airtí</w>
W est</w>
Tre oracha</w>
Th áinig</w>
Rio cht</w>
Rabh adh</w>
Q t</w>
PRÓ TACAL</w>
PARLAIMIN T</w>
P l
Mo dh
Man age</w>
Lean faidh</w>
L ean</w>
Icon s</w>
IS T
H ost</w>
Gníomh aíochta</w>
Gi ven</w>
G M
DO U
D ollar</w>
Cro í</w>
Cinn fear</w>
Car achtar</w>
Ca ta
COMMIS SION</w>
CO 2</w>
C airt</w>
C L
Athr aithe</w>
ALL STÁ
22 1</w>
16 .
0 9
0 8</w>
0 8
0 -
ÍOCH TAÍ</w>
ÉIR EANN</w>
wat ers
vulner able</w>
té irí</w>
rth réimhse</w>
rep lies</w>
regar ded</w>
phars áil</w>
ni a</w>
n û</w>
n deon
minu te</w>
malar tach</w>
mac -
m iti
h iarrachtaí</w>
h Ung
gn íomhaireacht</w>
gC ity</w>
europ a</w>
eas ta</w>
e City</w>
díosp óid</w>
discipl ine</w>
d u</w>
col ors</w>
chuid eachtaí</w>
chu ardach</w>
chomh tháite</w>
chomh bheartas</w>
chan ging</w>
ch omhairle</w>
ch er</w>
c á
c ast
c ache</w>
budg ets</w>
ath uair</w>
ard aithe</w>
aim id</w>
aibidl íocht</w>
ai thr
_ n</w>
V ir
To ol
TI VE</w>
Su cc
Su as</w>
Sain eofar</w>
RE LA
Par is</w>
P _
No thing</w>
Mat thias</w>
M ír</w>
L éar
J ab
Issu ed</w>
Im porting</w>
Ign alina</w>
Iar scribhinn</w>
ID IR
GN ÍOMH
FÉ ACH
FR AIN
FRAIN CE</w>
EP P</w>
E- mail</w>
Crea ting</w>
CE F</w>
Ap pointment</w>
A Í</w>
3 4
28 1</w>
20 2</w>
2 17</w>
ás dlí</w>
Á it</w>
y l
tit led</w>
th ús</w>
th day</w>
tear mann</w>
tal y
sti mu
sh ell</w>
seirbhis i</w>
s now</w>
ré ad
r sa</w>
pen sions</w>
p ul
omhair c</w>
och tai</w>
o e</w>
n- údar
month ly</w>
mis sing</w>
mhí nítear</w>
measu red</w>
meast óireachtaí</w>
lo oking</w>
integra ting</w>
inte llectual</w>
in mhar
gur bh</w>
g conarthaí</w>
fo ins
exam ples</w>
es tion</w>
emer gency</w>
da tha</w>
d or
crea se</w>
conclu ding</w>
coinbh l
cl iceáil</w>
ceang las</w>
cal aois</w>
be irt</w>
au dio</w>
aic mí</w>
ai re
acht bh
_ Scrios</w>
_ Dí
Tru st</w>
Sak harov</w>
PROTOCO L</w>
P ress</w>
P lain</w>
P ER
N on-
Me li
LUXEM BOURG</w>
L ínte</w>
Icel and</w>
INSTITU TIONS</w>
INSTITIÚ IDÍ</w>
Head ers</w>
F íse</w>
ECONO MIC</w>
E P</w>
Comh ord
Chec king</w>
Ca tagóir</w>
CO IM
Bu ild</w>
Bhli antúil</w>
3 90</w>
27 0</w>
26 0</w>
ío saí</w>
x- mac-
wid get</w>
w ording</w>
vis it</w>
u ch</w>
ty Name</w>
tra en
thu arascáil</w>
th eangacha</w>
ten der</w>
sup ports</w>
sh imp
s ann
ré it
retri eve</w>
ra cht</w>
pro secu
perio dic</w>
os la
or ation</w>
mhodh anna</w>
low -
le oirí</w>
l ost</w>
k s
iú b
ip e</w>
io sc
ine qualities</w>
im balances</w>
hel ping</w>
hec tares</w>
gn ach</w>
ghear áin</w>
fi onra
fh leasc</w>
feir me</w>
eur -</w>
eisceach túil</w>
dri ve</w>
demon stration</w>
coll ected</w>
co st-
cla use</w>
ch aith
bro w
breis luach</w>
breis eán</w>
bain fidh</w>
b v</w>
aithn íonn</w>
adver ti
admis sibility</w>
ach omhairc</w>
ac mhainne</w>
_ Find</w>
Tos aíocht</w>
T yp
T uir
T ab
Sp ás</w>
SH O
S hu
S AN
Rom anian</w>
NAI TH
L 0059</w>
Key board</w>
K y
I TE</w>
HAV ING</w>
Charac ter</w>
Ch al
CHON ARTHA</w>
CE LEX</w>
C all
B ris
A DO
3 2001
32001 L0059</w>
24 9</w>
úsáid te</w>
ÁL A</w>
well -
vir tu
v is</w>
tur nover</w>
tra vel
tomhal tóir</w>
ti ocfaidh</w>
ten tion</w>
substan ti
spea k</w>
sm achtbh
see king</w>
ró -
ro th
ro tation</w>
r ail
r age</w>
pho intí</w>
n grúpaí</w>
mol faidh</w>
mhair eacht</w>
lo an</w>
ligh ting</w>
l óiv
j un
iontr ála</w>
interpre ted</w>
improv ements</w>
i er</w>
h á
h eilimintí</w>
ghn é
gcru innithe</w>
gcomh lacht</w>
g réasán</w>
g Co
fif ths</w>
fhrea gra</w>
feidhm chláir</w>
execu te</w>
ent Error</w>
ens us</w>
eng th</w>
employ ees</w>
em phas
dea- chleachtais</w>
d áileadh</w>
cross ing</w>
confir m</w>
con tra
compl ex</w>
char tlann</w>
ceang ailte</w>
ath -
ap ters</w>
an faidh</w>
acces sibility</w>
W eather</w>
Tre or
T C
Proper tyName</w>
Per io
Pan el</w>
M álta</w>
Log ánta</w>
Log chomhad</w>
K Sp
GH LA
Cli entError</w>
CD -
Bh u
Ath raíodh</w>
éad aithe</w>
ÁIR ITHE</w>
world -</w>
thir d-
t- eolas</w>
som ething</w>
sheach adadh</w>
sett le</w>
rá sa</w>
ro ll</w>
respon d</w>
reg ime</w>
reduc tions</w>
recei ves</w>
ph on
ph ic
ndl eachtanna</w>
mh acha</w>
lo gin</w>
laeth anta</w>
interoper ability</w>
initi ated</w>
h ope</w>
h Ionstraim</w>
gníomhair í</w>
gc ean
g reen</w>
for ma
f abh
expan sion</w>
dlú th</w>
cuntas aíochta</w>
cumh raithe</w>
cumh acht</w>
chean nach</w>
bhfrea stalaí</w>
bhf o
ber g</w>
b ear</w>
author ize</w>
au tomatic</w>
all ery</w>
air teanna</w>
ab a</w>
XM P</w>
Vice- Presidents</w>
Sean uimhriú</w>
RA W</w>
R W</w>
Mon th</w>
MEMB ER</w>
M y</w>
Lin es</w>
L ow</w>
FREN CH</w>
EA CNA
Bo ston</w>
B as
An sin</w>
Akonad i</w>
AM AN
29 2</w>
26 5</w>
25 4</w>
w allet</w>
tradi tions</w>
thac ú</w>
tech ni
t aisceadh</w>
sp éis</w>
sh untas
seas aimh</w>
sea ts</w>
rai se</w>
ra e
ra dai
pro tocols</w>
p ilot</w>
p al</w>
mo ill</w>
meas tar</w>
mar canna</w>
m. sh</w>
lú thú</w>
log chomhad</w>
limi tations</w>
ita ge</w>
idir bhearta</w>
iarra dh</w>
gr á
fho insí</w>
exp ec
enh ouse</w>
dri ving</w>
di vided</w>
dh é
decision- making</w>
cú ig
cló nna</w>
chothrom aíochtaí</w>
cheann teidil</w>
ceang ailteach</w>
c ame</w>
bhun aítear</w>
bhain istíocht</w>
bain eadh</w>
an t
agra f</w>
Tor rent</w>
T rí
Struchtú racha</w>
Sm all</w>
Sci enti
Organ ization</w>
Mar tin</w>
M ei
LE E</w>
J am
In gearach</w>
IB NS</w>
Heilléan aí</w>
Fre edoms</w>
FIN AN
Bh ain</w>
B M</w>
B E</w>
Ath ruithe</w>
An im
AIRGEA D
ADO P
17 .
óip í</w>
í dí</w>
è is</w>
tra fficking</w>
top ic</w>
th eanga</w>
t ógáil</w>
straité ise</w>
stor ing</w>
ste n</w>
sta ble</w>
sin eirgí</w>
signific antly</w>
sholáth raíonn</w>
scair eanna</w>
s lán</w>
s eiceáil</w>
rec ently</w>
re viewed</w>
p ted</w>
omm end
nu a
m on</w>
lu íonn</w>
li theacht</w>
k h
k -
inoibrith eacht</w>
inbh insiúin</w>
im eagra
ig a</w>
i us</w>
huas teorainneacha</w>
ho scailt</w>
h app
gain ful</w>
gC inneadh</w>
g Coim
foir t</w>
fo ods</w>
finn éithe</w>
f li
f at</w>
dó ú</w>
díobh áil</w>
demo graphic</w>
cu bic</w>
complementar ity</w>
chú raim</w>
ch ainn
c laim</w>
c entres</w>
bh a</w>
bas es</w>
b reithiúna</w>
b eanna</w>
author ising</w>
aidh le
Web site</w>
Réim sí</w>
Rocht ain</w>
R a
Pro xy</w>
Par ts</w>
N OR
MÁ INE</w>
Meli lla</w>
La TeX</w>
LT Í
L ún
In stall</w>
Im reoir</w>
Foil seachán</w>
F if
Du l</w>
COUN TR
C lim
B ea
Ar chi
Amh áin</w>
Addi tional</w>
AM B
3 77</w>
3 53</w>
3 50</w>
14 .
00 00</w>
ór t</w>
ís eal
éig ean</w>
ÍO CH</w>
virtu e</w>
urrama íonn</w>
tub aistí</w>
th a
tain s</w>
supp lied</w>
sta bl
s íor
re ported</w>
raith eann</w>
pur chas
n ad
mo dúl</w>
mb onn</w>
li úntais</w>
l te</w>
iomarc acha</w>
ic ons</w>
i am-
ghairm iúil</w>
gh ual</w>
gcu ibhr
g rianghraf</w>
fo ghlaim</w>
digi K
dh iúscairt</w>
dh aingniú</w>
depend ence</w>
cán achais</w>
confidenti al</w>
compar able</w>
comm ission</w>
comh pháirt</w>
comh bhrúite</w>
comb ination</w>
chú irteanna</w>
ché imeanna</w>
bre osla</w>
bhreithiún acha</w>
bhfi on
bh reithiúnais</w>
at te
arrain g</w>
amh arc
all a</w>
ain ian</w>
_ Inneachar</w>
W in
V e
Ter min
T D</w>
Su iteáil</w>
Ser vices</w>
Se omra</w>
SM S</w>
Ro inn
Re vert</w>
P ause</w>
OTH ER</w>
Manu al</w>
L É
J an
Gnóth ach</w>
Fil ename</w>
Cur ren
Con tin
Cló nna</w>
Athr ófar</w>
25 7</w>
198 4</w>
19 69</w>
11 8
10. 3</w>
ú il
éifeach túla</w>
z o
w an
vis its</w>
vie wer</w>
uir lis</w>
tri ú</w>
ton om
ti ps</w>
stud ents</w>
sp o
s rea
rial ach</w>
ref use</w>
ra Ã</w>
pres ence</w>
pos ing</w>
peti tion</w>
os ph
oibr eacha</w>
oc fadh</w>
mo tor</w>
mi x
mhair c</w>
mh ú
mea se</w>
mb re
lip éad</w>
li ostaí</w>
legi ti
lawy ers</w>
inchái litheachta</w>
géar chéime</w>
for aois
fol aithe</w>
foins eacha</w>
ear tuithe</w>
dis playing</w>
dai ly</w>
d earc
cu ts</w>
correc tive</w>
constr aints</w>
consequ ence</w>
con form</w>
comhsheas mhach</w>
citiz enship</w>
cho imirciú</w>
bran ch</w>
be et</w>
bain eann</w>
b Poblacht</w>
aon tais</w>
aff airs</w>
_BAR _S
Wor kers</w>
S TE
Ro imh</w>
RO S</w>
Mo ving</w>
Im portant</w>
GOVER N
GD M</w>
E ala
E ad
D EN
Co ig
CON SOLID
C asta</w>
C am
A la
3 89</w>
27 2</w>
201 8</w>
2. 2011</w>
í -
Í s
Í SI
your self</w>
with draw</w>
waters _</w>
w est</w>
ul lscreen</w>
tug tar</w>
tuarasc ála</w>
ther eafter</w>
th oirmeasc</w>
th ings</w>
tS lóiv
st aire</w>
spleá chas</w>
settl ement</w>
sci ar</w>
satis factory</w>
s- p
s alar
ren ame</w>
remain s</w>
rela tes</w>
rap id</w>
prec lu
ph ait
oll táirgeacht</w>
n deireadh</w>
mo il
me tric</w>
m ation</w>
is m
instal lations</w>
hUng áire</w>
gcú l
gcea thrú</w>
g et
fol aigh</w>
f óirdheon
f omh
exam ined</w>
el lan
el er
each ta
e ously</w>
dlit eanas</w>
distor tion</w>
dis ability</w>
deac air</w>
condi tional</w>
comh choiteann</w>
cl ic
chl iceáil</w>
chead aíonn</w>
cancel ed</w>
c rash</w>
brac kets</w>
athaoir ligh</w>
an bh
alterna tes</w>
alar ms</w>
ach óir
abol ish</w>
Swe dish</w>
R éad</w>
Ombud smen</w>
Meas far</w>
Lea ve</w>
I o
Gnóth as</w>
G AN</w>
FÉACH AINT</w>
Fil ters</w>
F unction</w>
Ead rána</w>
Dear bhuithe</w>
DOU ROS</w>
DI AMAN
COUR T</w>
CO M</w>
CA DH</w>
C ean
Brow se</w>
BHAIN EANN</w>
B order</w>
AIR E</w>
27 a</w>
22 -
2 a</w>
éar a</w>
á is
ver si
u cht</w>
tóg ála</w>
tr Ã</w>
terror ism</w>
tS lóv
su ir
spir it</w>
sp here</w>
son rú</w>
shu ib
sh í
sh eiceáil</w>
s we
s ly</w>
ro om</w>
relig ion</w>
rann pháirtí</w>
r omh
pro fit</w>
prin ter</w>
pri ontáil</w>
posse ss</w>
ph p</w>
pap ers</w>
p ass</w>
ol ú
nd ír
nai p
n- earraí</w>
mag az
lú nta</w>
léi reofar</w>
luais íní</w>
leith leach</w>
lea bhr
iste -shonracha</w>
imir cí</w>
go als</w>
glac far</w>
gcuibhr eann</w>
gcu im
gc aighdeán</w>
fhadh b</w>
fac ing</w>
equ ally</w>
el led</w>
eir lín</w>
ec e
concentra tion</w>
co ok
clá raithe</w>
chó ineasú</w>
chum a</w>
chei thre</w>
c k</w>
bogear raí</w>
bhain ne</w>
bail i</w>
au di
at tach</w>
an ce
ak ia</w>
acc id
_ Taispeáin</w>
_ List</w>
V AT</w>
Ul lmh
Uimh reacha</w>
Tim e
Soc rófar</w>
Pol ish</w>
P EN
O P</w>
No w</w>
M ad
LEAG AN</w>
K S
I atáin</w>
G réig
DIAMAN DOUROS</w>
DA V</w>
D _
Cothrom ánach</w>
Car tlann</w>
CONSOLID ATED</w>
C athaoirleach</w>
Ar bitration</w>
Antarc tica</w>
Air teu
AR R
A er
A C</w>
28 8</w>
24 7</w>
23 7</w>
ó ine</w>
whe reby</w>
tá isc</w>
t aire</w>
t Antartach</w>
shain cheisteanna</w>
r ary</w>
org ánacha</w>
ola í</w>
nu mer
ndlí sheomraí</w>
na vi
n- oibleagáidí</w>
mh aigh</w>
main tainer</w>
lo in
ke wise</w>
jud ges</w>
je op
ip i
in ti
in land</w>
immedi ate</w>
il i</w>
identi fying</w>
fé infh
ful lscreen</w>
emer ging</w>
ea grúchán</w>
dréach t-
dlúth pháirtíochta</w>
deli vering</w>
deleg ations</w>
d ence</w>
d T
cop ies</w>
cons ensus</w>
conf er</w>
compres sed</w>
comm ands</w>
comh eagraíocht</w>
comh choiteanna</w>
chum ainn</w>
choir iúla</w>
c m</w>
bu ttons</w>
bil lion</w>
bar ri
ard án</w>
aim éadair</w>
acquis ition</w>
ach a
Wa ter</w>
St aid
Sh ift</w>
Scr íos</w>
Ref erence</w>
RG B</w>
R _
R P
Osc áil</w>
Lún asa</w>
L ati
J O
H am
Gníomh aíochtaí</w>
G ran
FHE IDH
East ern</w>
Cóip cheart</w>
COMMUNI TIES</w>
Be havi
AR D</w>
A mar
A A</w>
9 -
30 8</w>
29 8</w>
ío lacfaidh</w>
ál faidh</w>
Í oc
zer land</w>
u ti
tra sna</w>
te oireacht</w>
t aidhle
substan tive</w>
subm itting</w>
so il</w>
sh ol
sh eol
seach ad
se c</w>
s acha</w>
réasú nach</w>
rati fied</w>
on a</w>
obstac les</w>
mh leabhar</w>
mem os</w>
medi um
ma y
lean tach</w>
iúch án</w>
ind í</w>
ick name</w>
gre enhouse</w>
fo thaithe</w>
ell o</w>
each tar</w>
dis cre
digiK am</w>
d eas</w>
có imheas</w>
con struc
ch ion</w>
by tes</w>
ass urance</w>
achain í</w>
_ About</w>
Trá th</w>
Tran si
Suim igh</w>
Statis tics</w>
Spe ed</w>
Re tri
Open PGP</w>
Ne w
N AL</w>
Ma j
M ath
LA TION</w>
Ionad aithe</w>
INN E</w>
I TH</w>
Go od</w>
Gnóth ais</w>
G E
Follow ing</w>
Flo or</w>
F D</w>
Eol ais</w>
ED PS</w>
Clim ate</w>
Chru ach</w>
CS AMB
CSAMB URG</w>
C as
BUN Ú</w>
An g
Adap tation</w>
AIRGEAD AIS</w>
ó stríomhaire</w>
í t
á rach</w>
white -
urrú is</w>
underst ood</w>
theor ainn</w>
ted Kingdom</w>
tas ach</w>
tac agraf</w>
suff rage</w>
subsi dies</w>
st át
sh ócmhainní</w>
secon d
ríomh chlár</w>
reo ite</w>
regu lated</w>
ram ach</w>
r d</w>
produc tive</w>
pr acti
pix els</w>
ph rase</w>
oláth air</w>
oir e</w>
off ences</w>
ná r
ng abhann</w>
na m</w>
n- urramú</w>
las ta</w>
iz ing</w>
ir eamh</w>
in the</w>
ic i</w>
i j
ht ml</w>
h institiúide</w>
h iarmhairtí</w>
ght ness</w>
ghn íomhaireacht</w>
gc oibh
fal se</w>
eisi a
dic tionary</w>
des ir
d le</w>
correspon d</w>
cinnti theach</w>
ch asach</w>
cep tion</w>
ceap acháin</w>
caith fear</w>
aw are</w>
ar bh</w>
amp ai
al one</w>
adv anced</w>
accompan ying</w>
WHER EAS</w>
W ITH</w>
VER SION</w>
U ID</w>
TE N
Sc Ã</w>
SI AD</w>
S lóv
S -
Qu ality</w>
N T
Maastri cht</w>
Ma h
LU CSAMBURG</w>
Kor ean</w>
Jap anese</w>
Image Plugin
ITA LI
IN T
Fif th</w>
Fi ve</w>
Dramh phoist</w>
Dis k</w>
De on
Chomh aontaithe</w>
Bar r</w>
A z
welf are</w>
un n</w>
un ity</w>
transm it</w>
tiú r</w>
throm chú
teicneola íocht</w>
taidhle oireachta</w>
t ou
succ ess</w>
simp lithe</w>
sheirbhí s</w>
seas ta</w>
sc an
s y</w>
revo ked</w>
retur ned</w>
rein force</w>
raith eoirí</w>
r ais</w>
prepar ations</w>
ph á</w>
ph lan
ou se
o ting</w>
noti fications</w>
ngear ánach</w>
n it
n easta</w>
n ac
mo des</w>
mh i
mar c
m ir
lea c
la o
iú nach</w>
iz ard</w>
is on</w>
ingredi ents</w>
impor ter</w>
idir thurais</w>
i k
her itage</w>
h istor
gComh aontú</w>
fó graí</w>
fh ad</w>
fall s</w>
es tiv
dío thú</w>
dt aisp
dh álaí</w>
cé im
crio chn
chtain eachta</w>
chomh ar
bo oks</w>
bhun ús</w>
bhfrea gra
attach ments</w>
asc als</w>
aistri úcháin</w>
aidh e</w>
aer áid</w>
Uni tedKingdom</w>
Th airis</w>
T radi
T N</w>
Sl óiv
Scrío fa</w>
Sc ór</w>
Po inte</w>
P en
On ce</w>
M ost</w>
GEAR MÁINE</w>
Frea gra</w>
EACNA MA
E stabl
Cáip éise</w>
Che ese</w>
C áil
C eart</w>
Bra bhsáil</w>
Ass istance</w>
Al liance</w>
Aisghair eadh</w>
4 0.
24 1</w>
é is
vis a</w>
vi ol
there from</w>
thar aif
thar ach</w>
tair seach</w>
t ree</w>
sta ch</w>
sp á
si r</w>
salar ies</w>
réag ach</w>
ro o
rach adh</w>
over write</w>
og a</w>
n es
mí niú</w>
metho d
m ei
lai s
indic ations</w>
ic ial</w>
iarr tha</w>
h éifeacht</w>
ghear ánach</w>
gener ation</w>
fu els</w>
fac tor</w>
expres sly</w>
econom ies</w>
easi ly</w>
du mp
dtabhar faí</w>
dlí sheomra</w>
dhú shláin</w>
detec ted</w>
deon tas</w>
cu óta</w>
crit éar</w>
con c
chon air</w>
cheang lais</w>
ch iú</w>
ch iallaíonn</w>
cas ta</w>
bri ef</w>
bhun táistí</w>
bhfu arthas</w>
b is</w>
b and</w>
au tonom
_ Contents</w>
Ukr ainian</w>
UR E</w>
Transi tional</w>
Tradi tional</w>
Th under
St ádais</w>
So vereign</w>
Rob ert</w>
Rec ipi
OIR IÚ
N eigh
M L
Dial óg</w>
DI Ú
Croati a</w>
CON S
B rúigh</w>
work er</w>
wat er
w ines</w>
vi et
us al</w>
u isce
tu inn
tri úr</w>
tren ds</w>
ti se</w>
su d
ste m
sp ent</w>
shimp liú</w>
sh in</w>
sex ual</w>
sealbh óir</w>
scar adh</w>
satis fy</w>
s íoch
reco urse</w>
quar ter</w>
our ing</w>
nu achóir
moder n
kee ping</w>
inneo far</w>
inn eas</w>
ing er
infh eis
h ide</w>
gu il
glas raí</w>
ghu ail</w>
gh niomh
foirm iúlachtaí</w>
fhomh íre</w>
ec tures</w>
eann airí</w>
eal ed</w>
dearbh aithe</w>
dar sn
dal ai</w>
d torthaí</w>
cruth aigh</w>
compati bility</w>
cluais ín</w>
chu madh</w>
chamb er</w>
caill tean
c isti</w>
c ampai
bo vine</w>
bhun ófar</w>
b ó
ame ter</w>
al ism</w>
al -
aisin éirí</w>
administra tions</w>
_ Next</w>
U air</w>
TH IS</w>
Sta onfaidh</w>
S Ó
Proc ess</w>
Pol ai
Iompórtá laí</w>
ITALI AN</w>
I e</w>
H on</w>
H O
GR AND</w>
G ad
For oinn</w>
F it</w>
Direc tor</w>
D IS
Chr ist
CE N
C Ã</w>
A li
28. 2.2011</w>
26 8</w>
02 1
óc áid</w>
white- space</w>
wh ereas</w>
v ary</w>
u k
tu ras
trá chta</w>
thá scairí</w>
techni ques</w>
tabl ed</w>
sm ao
sheirbhí sigh</w>
ré ige</w>
resign ation</w>
reimbur sement</w>
pre- wrap</w>
pre scribed</w>
prai ticiúla</w>
occup ational</w>
occa sion</w>
n- eagraíochtaí</w>
mun ities</w>
mheán mhéide</w>
mharg ú</w>
lingu istic</w>
li achta</w>
k in
k day</w>
iti mh</w>
iomlán acha</w>
inn each</w>
id eas</w>
h inniúlachtaí</w>
h aontú</w>
gcos tas</w>
g aire</w>
fore seen</w>
fif ty-
fhoirm iú</w>
f á</w>
eti mes</w>
et ter</w>
enta l
each tai</w>
discus sions</w>
de man
cáip éisí</w>
consider ing</w>
chúl taca</w>
cheang laítear</w>
ch li
ch istiú</w>
cal aoise</w>
arom atised</w>
aic me</w>
XD M
XDM CP</w>
Tr aining</w>
Tionó il</w>
Sp ell</w>
SO CIAL</w>
S CE</w>
Re _
Prim ary</w>
NO TE</w>
Liotu áine</w>
LTÍ RE</w>
Key words</w>
Frank lin</w>
F ógairt</w>
Educ ation</w>
EACHTR ACH</w>
Clú dach</w>
Ainm ni
A lá
40 b</w>
tuar astail</w>
thuair imí</w>
taly province</w>
t c
sú cháin</w>
syn chron
supplem enting</w>
spec ifying</w>
rú nai
réamh shocrú</w>
ro oms</w>
restric tion</w>
raid isiúnta</w>
pri bhléidí</w>
pre -</w>
pl ication</w>
or ts</w>
ni c</w>
n dualgais</w>
leas aionn</w>
k ling</w>
j ab</w>
iom aíoch</w>
ig al
idirghabh ála</w>
ide a</w>
ick ly</w>
h eagraíocht</w>
ghníomh acha</w>
gc áil</w>
fro zen</w>
foirm eacha</w>
fhág ann</w>
ex emp
ess or</w>
eng aged</w>
eil g
ece _</w>
earm ad</w>
ea st
dispos ing</w>
deon aíodh</w>
de o
críochn óidh</w>
ché im
ceap faidh</w>
caomh naithe</w>
cainn íochtaí</w>
bh ogadh</w>
bai liú</w>
b rú</w>
_ Use</w>
Wel come</w>
Tar get</w>
TAR Y</w>
T arraingeoidh</w>
T arraing
Sol áthr
Scienti fic</w>
S eas
R A</w>
Qu o
Pic ture</w>
P ages</w>
Meabh raigh</w>
Lá rionad</w>
Leas- Uachtarán</w>
Iod áil
Forbr óir</w>
Fol mhaigh</w>
F áilte</w>
F ion
Ex tract</w>
D eilbhíní</w>
D N</w>
D L
Cust aim</w>
CO GN
Au to
ARD -
ADOP TED</w>
27 5</w>
021 10-
úin éireacht</w>
éifeach tacha</w>
áip éisí</w>
w ar</w>
u t</w>
tá stáil</w>
tráth úil</w>
to wn</w>
tempor arily</w>
t ábhar</w>
refl ect</w>
r í</w>
perform ing</w>
pearsan tacht</w>
oi g
ndír ítear</w>
naip í</w>
n one</w>
n ar
mion n</w>
mb le</w>
mach ines</w>
labh ra</w>
k er
jo in</w>
idirdhealai theach</w>
ic ity</w>
gó intí</w>
gl ob
gheal ltan
gh éar
gceap adh</w>
gComh dháil</w>
fronti ers</w>
flex ibility</w>
fe ed</w>
exper im
end mail</w>
dío l</w>
duc tion</w>
dri vers</w>
dic ated</w>
dhaon lath
d d</w>
correc tly</w>
constitu tes</w>
comh aontaithe</w>
chro í
ch ain
bun óidh</w>
buil t</w>
bhf illteán</w>
b ean</w>
b ail</w>
asse mbly</w>
as chuir</w>
ag raif</w>
ad ding</w>
acht bhuiséad</w>
_S eoladh</w>
_BAR _B
X X</w>
X VI</w>
V ít
T aifeach</w>
St át
SO C
S HI
R Ú
Priv ate</w>
Pack age</w>
PR IN
M y
Lu ach
Laun ch</w>
L ength</w>
K en
In line</w>
ISIÚ N</w>
INNEA DH</w>
D or
D S</w>
D ING</w>
Conf ir
Comh aontuithe</w>
Cli b</w>
Ch om
C la
3 55</w>
Í OR
y stem</w>
y g
vege table</w>
tú cháin</w>
tra y</w>
tra ding</w>
to uris
tis h</w>
t- ainm</w>
t Name</w>
ste in</w>
star ts</w>
sid ent</w>
sholáth air</w>
seri ously</w>
scrutin y</w>
safegu arding</w>
revo ke</w>
radi ation</w>
ph ic</w>
p é</w>
p áipéir</w>
nu asach</w>
mh il
lâ nû</w>
lá bh
log ála</w>
lit riú</w>
lig n</w>
leigh is</w>
l ar</w>
isc ellan
if e</w>
idir líon</w>
idir chra
ibh eacha</w>
iarr tar</w>
h amháin</w>
ghn ách</w>
geogra facha</w>
for líon
fad téarmacha</w>
déil eá
dtei dlíochtaí</w>
dist inc
dhomh anda</w>
dep ends</w>
da ta
d óth
d ealú</w>
conflic ts</w>
chomh thoil</w>
c ineálcheadaithe</w>
at ais</w>
an ann</w>
ak u
_ Uirlisí</w>
_ Bog</w>
S á
S eap
Réad a</w>
Remin der</w>
Ref erences</w>
RE COGN
Pr óifíl</w>
P C
MH AIR
H IS</w>
G rid</w>
G ear
F inn
F IR
Ex change</w>
Ear raí</w>
Cur ie</w>
Cuim sitheach</w>
Comhlíon faidh</w>
Ch ris
Ceap far</w>
C ell</w>
Artic le
Ard- Diú
ASC II</w>
A lign</w>
3. 3</w>
3 6
00 -
éigean dála</w>
vó t
ve -
ts oláthair</w>
ti ortha</w>
thogh adh</w>
thar lóidh</w>
ten se</w>
t Ãº</w>
socio -
sm an
sceimhlith eoireachta</w>
s main</w>
s ire</w>
rou gh</w>
ro ime</w>
restric ted</w>
re ora</w>
páirce áil</w>
pref ectures</w>
ous ing</w>
os c</w>
orc al</w>
onnmhair iúcháin</w>
oibh e</w>
o i</w>
mob ile</w>
mhain nigh</w>
mbain fear</w>
mb ar
m l
li on
lagh duithe</w>
ith re</w>
iscellan eous</w>
ir is
ion chúis
inspec tions</w>
im position</w>
im chlúdach</w>
idirchra oibhe</w>
ho c</w>
h iompar</w>
ghear ánaí</w>
gabh adh</w>
fi gures</w>
fhi anaise</w>
earr áidí</w>
eagra íochta</w>
dis ast
d iúil</w>
d aingean</w>
chum as
c ity</w>
bi anna</w>
ban king</w>
ardo us</w>
ar raige</w>
ar ra
aithr is</w>
airgead raí</w>
a der</w>
a .
_B arra</w>
W ai
S in
Réigiú in</w>
R os
P ass
Oir iú
Net scape</w>
Multi ple</w>
Mi B</w>
Meabh rúchán</w>
Ma ke
Langu ages</w>
I dir</w>
H EL
G HT
Foil seofar</w>
F ig
D aoine</w>
Có naidhme</w>
Coun tries</w>
Cor ri
Col ún</w>
C óir
C olumns</w>
Bun achar</w>
B ail
Administra tive</w>
Acc ord
A M</w>
7 3.
30 3</w>
3 10</w>
16 98</w>
éag mais</w>
áid each</w>
Á ILE</w>
wh ol
v c
tiom anta</w>
tháirg eoirí</w>
thionscad al</w>
them es</w>
ta bility</w>
t- am</w>
su aitheadh</w>
simpli fication</w>
sh r
secur ities</w>
scrú dóidh</w>
sao thraithe</w>
s ine</w>
rúnai cm
reach túil</w>
qu e
preclu de</w>
p óilíneachta</w>
os laí</w>
onn adh</w>
núiclé acha</w>
negoti ation</w>
monar óirí</w>
mb an</w>
mail box</w>
liquid ation</w>
len ce</w>
legiti mate</w>
leag adh</w>
la bhairt</w>
ir eachtaí</w>
inn éacs</w>
hol dings</w>
ho o</w>
gal air</w>
g t</w>
fíor ú</w>
fheidhm ithe</w>
exp ired</w>
em atic</w>
ear lier</w>
e ties</w>
e Name</w>
du es</w>
dhío l</w>
dec rease</w>
contribu tes</w>
confir med</w>
compl ain</w>
comm ission
comhlíon ta</w>
cion ta</w>
chomh lânû</w>
cho imeád
chas acha</w>
ch al
bh lé
bac ainní</w>
assess ing</w>
al ization</w>
aireach taÃ</w>
aifead ta</w>
adver sely</w>
_D ún</w>
Uir lis
U N</w>
Tog gle</w>
T ree</w>
Str ing</w>
SHA 1</w>
Rann pháirtithe</w>
RO Y
RE ITH
RE G
RA C</w>
R éi
R aon</w>
Pro f
O IB
N asc
MAR K</w>
Le g
Idir líon</w>
ISO- 20
ISO-20 22-
EI LE</w>
E ra
Do icim
Con ver
Chríoch naitheach</w>
Cal cu
B é
A mhairc</w>
130 8</w>
ór t
white -</w>
ther n</w>
th ai</w>
tem perature</w>
suppl ement</w>
ster day</w>
star tup</w>
sta onadh</w>
shoch rach</w>
sc re
saor chúrs
sa y</w>
réit íonn</w>
roghn úcháin</w>
res olutions</w>
requis ite</w>
rep air</w>
ref usal</w>
re distribu
per missions</w>
oibrith eoirí</w>
ni al
long a</w>
leithrea suithe</w>
leath áin</w>
law ful</w>
ip Ã</w>
iom pr
inv ite</w>
imh ir</w>
gc é
fí on</w>
fin es</w>
fa x</w>
f e</w>
ex tre
equ ity</w>
eirspict íocht</w>
e- mail</w>
dheis eanna</w>
dheir idh</w>
de dicated</w>
có d</w>
concer ted</w>
clá rú</w>
cla uses</w>
ch irt</w>
ca tagóir</w>
bhf éad
atten ding</w>
aor áid</w>
align ment</w>
Wor ld</w>
W il
Slá inte</w>
Saoir se</w>
S il
Ro om</w>
Rapporte urs</w>
Pi x
Oir th
Nat ura</w>
M air
Inte gra
H y
F al
F aisnéise</w>
Ex per
Environ mental</w>
Eala íon
E at
D ea
Com pu
C Ã³
C lo
Bu tton</w>
Athnu aigh</w>
Ac mhainn</w>
3 8
27 e</w>
ús aí</w>
í di
áid i</w>
á ras</w>
á cht
Íos luchtaigh</w>
versi ties</w>
thairbh ithe</w>
tei mpléad</w>
stiú radh</w>
si th
shon raigh</w>
shain mhínítear</w>
seol ta</w>
scag tha</w>
ru s
reach ing</w>
re r</w>
prosper ity</w>
produc tivity</w>
prin ting</w>
pre mis
premis es</w>
on- the-
oc cur</w>
no ted</w>
n- úsáid</w>
m isiún</w>
li z
j unction</w>
itor ies</w>
is ations</w>
institu te</w>
imir c
human itarian</w>
haz ardous</w>
fór saí</w>
fhu inneamh</w>
fhor ais</w>
exten sive</w>
entreprene ur
eicneola íochtaí</w>
ed u</w>
eatra mhacha</w>
do s</w>
dlit eanais</w>
disast ers</w>
dis aster</w>
dis able</w>
diplom atic</w>
comh ionanna</w>
comh fhreagracha</w>
chothrom aíocht</w>
busin esses</w>
bun ábhair</w>
bour hood</w>
b páirt</w>
b agairt</w>
am aí</w>
aicm iú</w>
_ Réamhamharc</w>
_ Folder</w>
_ Focal</w>
X II</w>
UTF- 8</w>
Th om
T ai
Si ar</w>
Sa or</w>
S ER
N-Z _BAR_S
N G
L amh
Kon sole</w>
Iar tharach</w>
H ong</w>
Encryp t</w>
De p
Cum a</w>
Comh dh
C OR
B or
Accord ingly</w>
3 88</w>
24 2</w>
íoch túil</w>
wo od</w>
vis ual</w>
vari able</w>
tuairisc ithe</w>
triom aithe</w>
tiv ation</w>
teacht aireachta</w>
suir bh
soch rach</w>
simpl y</w>
shu im</w>
shon rófar</w>
sh ín
se in
s atailí
s aibh
ru d
rea p
r ite</w>
phlean áil</w>
our ce
ou thern</w>
or ted</w>
nó ta</w>
ne y</w>
ndí reofar</w>
mór án</w>
min t</w>
medium -term</w>
mal airt</w>
m íosa</w>
li b
ionad ú</w>
ins ean</w>
h allmhairí</w>
govern ors</w>
ghla ma</w>
gcr ich</w>
gabh ála</w>
g ic</w>
g afa</w>
fu r</w>
fr om
fe á</w>
fair singe</w>
f íor</w>
eola í</w>
em ission</w>
ell s</w>
earc aíochta</w>
e k
dú shlán</w>
dri ed</w>
d éan</w>
d athanna</w>
cúl ra</w>
con cre
chríoch naithe</w>
ch untas
c ánacha</w>
brea k</w>
bra b
bo chtaineachta</w>
bh e</w>
belong ing</w>
bea gnach</w>
b ord</w>
app ears</w>
an i</w>
am acha</w>
allmhair ithe</w>
al though</w>
ainmn íocht</w>
_BAR_ Comhaid</w>
_ Maidir</w>
W FD</w>
U isce</w>
Tu illeadh</w>
S pl
S L</w>
Rec ommend
Off line</w>
NAITH EACHA</w>
Mail box</w>
M éad
I oru
H un
Gu thán</w>
Fo g</w>
F í
Dele g
D AN
Conf lic
Comh oiriún
Bur n</w>
BH AIRT</w>
B y
AC T</w>
3 3
ór tais</w>
íomh anna</w>
á lach
yi eld</w>
un ta</w>
un ions</w>
ullmh aithe</w>
ter inary</w>
tais teal</w>
tai stil</w>
super vis
se áin</w>
sch edule</w>
saor ánacht</w>
sal ary</w>
s City</w>
ric í</w>
reti red</w>
rea s</w>
paragra ph
p oibl
or ting</w>
on e-
nár bh</w>
neamhrial tachtaí</w>
neamh dhleathach</w>
ne od
min ority</w>
mh airg
me ters</w>
mb arra</w>
m Ã</w>
leith leacha</w>
l led</w>
intleach túla</w>
ias achta</w>
gra phs</w>
ghu aill
gg s</w>
gcai piteal</w>
g artha</w>
fra me
foraois eachta</w>
fi ach</w>
fhó nta</w>
fh ógairt</w>
f an</w>
evalu ate</w>
encour aged</w>
ear ann</w>
e subl
distur b
dis pose</w>
direc tors</w>
deimh in</w>
d oc
cr on
contr actors</w>
confidenti ality</w>
con clúidí</w>
complain ants</w>
comp lies</w>
co bh
chum rú</w>
choisc fidh</w>
bhF eidhm</w>
ato ghadh</w>
ar ti
and amach</w>
abhf ar</w>
ab use</w>
a ts</w>
a p</w>
_S O-8859-
X IV</w>
Vi et
Treo suíomh</w>
Th re
Th ai</w>
Scrios adh</w>
SHO ILSE</w>
SEC UR
S ar
S ON
Rogh chlár</w>
Ri ver</w>
R áta</w>
R inneadh</w>
R T</w>
Priv ileges</w>
P lan</w>
P lac
Mon at
M I</w>
KP ilot</w>
K os
Im leabhar</w>
IS _
I _SO-8859-
H id
Gh ra
G ol
Fíor dheimhniú</w>
Fu aim</w>
Foil síodh</w>
Fh eis
De sign
Dan i
D A</w>
Con vert</w>
Chomh ar</w>
Ch láraitheoir</w>
CEAR T</w>
C ei
B án</w>
Ac tivate</w>
AI TH
3 49</w>
28 6</w>
10 83</w>
û n</w>
é ach</w>
w ill
under takes</w>
tras dul</w>
tionscla íocha</w>
th arraing
sás ta</w>
st í
soli d</w>
soic indí</w>
short cut</w>
see ds</w>
sam pla</w>
rúnd achta</w>
ri c</w>
re sign</w>
por ter</w>
plat forms</w>
net working</w>
n- oibríochtaí</w>
monat óireacht</w>
mhí bhuntáiste</w>
luch tuithe</w>
lo ine</w>
is land</w>
inven tory</w>
il st</w>
iar ann</w>
ian aithe</w>
heicte áir</w>
ge- rate</w>
féinfh ostaithe</w>
fhoil seachán</w>
fea ture</w>
exam ining</w>
dra mh</w>
dheir eanach</w>
d ár</w>
d ireach</w>
corru ption</w>
con cept</w>
comh rac</w>
coinbh insiúin</w>
clos ing</w>
ci anda</w>
ché atadán</w>
chomhlach ú</w>
chlú daigh</w>
chláir ín</w>
chin eann</w>
cead ú</w>
ce ir
c acht</w>
b ul
as sume</w>
anti -
al ach</w>
a eir</w>
Z ip</w>
Ya hoo</w>
Vít nea
Tur cach</w>
Tran spar
T air
S CH
ROY AL</w>
Pi er
NAI S</w>
La w</w>
L éir
Joh n</w>
I _m
Gníomh achtaigh</w>
For b
Finn ish</w>
F un
En h
D ist
Cé n</w>
Cur tha</w>
Col or
COUNTR IES</w>
CI D</w>
Bain fear</w>
B li
App earance</w>
Aibh siú</w>
AI M</w>
A thrú</w>
3 12</w>
28 2</w>
áisiú lachta</w>
ái b</w>
Ãº sÃ</w>
zer o</w>
x y
where ver</w>
vari eties</w>
unit- symbols</w>
uni versities</w>
uile chuimsitheach</w>
ts íocháin</w>
tomh ais</w>
tháirg tear</w>
th ers</w>
ta m
t aifead</w>
t _
su b</w>
ster ing</w>
stal aithe</w>
sp end</w>
sol em
small er</w>
situ ated</w>
sear tha</w>
se ven
sa w</w>
s áil</w>
s tead</w>
ren ce</w>
reli ef</w>
re forms</w>
páirce ála</w>
provision ally</w>
princi pal</w>
par k</w>
omm un
o is
o cht
nuachóir iú</w>
mpl éid</w>
mhí re</w>
mhí leata</w>
mh i</w>
lu ath
li ves</w>
l ta</w>
k i
ionad aíochta</w>
infh eistiú</w>
in i</w>
ic ile</w>
fo ot
flow s</w>
feirm eoireachta</w>
faireach as</w>
f ast</w>
ev ol
dt arraingt</w>
dl i</w>
dhl eachtanna</w>
d Teideal</w>
có mhaoinithe</w>
comh aon
co inníol
chun tar</w>
chum asaithe</w>
cho istí</w>
chl ú</w>
chl é</w>
chead únais</w>
cei mic
call ing</w>
ar y
aon fhoirmeacha</w>
ann els</w>
airgead as</w>
ai se
activ ely</w>
_ Image</w>
Y el
Un less</w>
Tor thaí</w>
Tag s</w>
Ta king</w>
TH U
T iont
Stiúrth óir</w>
Star ting</w>
Slóv aice</w>
Sc ore</w>
SI N</w>
RE SOLV
R ed</w>
R O</w>
Po ints</w>
O ver</w>
Mheán mhuir</w>
Leabhar marcanna</w>
L y
ILI TY</w>
ID E</w>
HI GH
Gla och</w>
G nó</w>
G L
G II</w>
Fin ally</w>
Fi elds</w>
F et
EU C-
D om
D am
Cú ig</w>
Con sum
Comh lach
Co ordin
Cel ex</w>
CH AN
C an</w>
Bun aítear</w>
Bri tish</w>
Back up</w>
Anti -
AN S</w>
A-M _BAR_B
28 5</w>
02110- 1301</w>
Ú cr
w arran
unit- format</w>
under stand</w>
un limited</w>
ul tú
tw ice</w>
tosc aireachtaí</w>
th eagmh
tea m</w>
st ers</w>
sho wing</w>
s ome
prohib itions</w>
particip ant</w>
p sy
on-the- spot</w>
oli ve</w>
nái th
láid re</w>
luch u</w>
loing se
leag anacha</w>
lay er</w>
la íocht</w>
ine Ã</w>
ill icit</w>
high light</w>
ghlas áil</w>
gc earta</w>
fh éad
feidhm íocht</w>
fa ults</w>
f ill</w>
expl ain</w>
err ors</w>
e very
dom ain</w>
dh iúl
desir able</w>
dea radh</w>
có mhargadh</w>
comhsheas amh</w>
comhlán tacht</w>
coig eartuithe</w>
clá r
cinn tiú</w>
choi p
ch éad
cal afoirt</w>
ca omhnú</w>
c éireachta</w>
bhuiséad aigh</w>
bhea g</w>
bai jan</w>
at or
at i</w>
abh ain
SÓ ISIALTA</w>
Slov akia</w>
Sioncr ó
S Í</w>
Retri eving</w>
P róis
Nuála íocht</w>
K r
K ate</w>
Jo in</w>
F ri
Deis ce</w>
D ÍO
CU R</w>
CRÍOCH NAITHEACHA</w>
C óip</w>
BH EAR
B it
B ad</w>
Ano is</w>
Alb am</w>
AP P
12 90</w>
12 34</w>
. int</w>
- úsáid</w>
íoc tar</w>
ÁN D
y es</w>
y er</w>
two- thirds</w>
timp eall</w>
thir d
th read</w>
smachtbh annaí</w>
simultan eously</w>
sh amhail</w>
seachad ta</w>
s sed</w>
s of</w>
ri es</w>
r n
por tion</w>
per mission</w>
ou red</w>
or row</w>
or p
oc cur
nutri tion</w>
neamh- in
mol tai</w>
mid -term</w>
mh ná</w>
loin ge</w>
lit rithe</w>
leath acha</w>
judg ments</w>
ionta ofa</w>
increa ses</w>
imir t</w>
i ai
ho st
heicte ár</w>
h lar
grea t-</w>
gcl eachtas</w>
gc ionn</w>
fíon ta</w>
feas acht</w>
exper tise</w>
exchan ge-rate</w>
ensu res</w>
eic s
ear t
ear ach</w>
dic ally</w>
dhea -
dh ó</w>
d toghcháin</w>
commun au
co u
cion tach</w>
cear dl
ceann adh</w>
c entre</w>
c aitheamh</w>
bun ófar</w>
bhfor áil</w>
ab ul
_B ay</w>
_ p
_ R
_ Cuir</w>
W o
Tu arasc
Su stain
St aid</w>
Sam i</w>
N ever</w>
Mon te
Mon itor</w>
Min imum</w>
Ma ur
L ou
L am
Jo se
Gre ille</w>
GN SS</w>
G rianghraf</w>
Faireach áin</w>
F am
Ex cept</w>
EC S</w>
E I</w>
Dan mhairg
DEN MARK</w>
Confi g</w>
Chomh pháirteacha</w>
COMH AD</w>
C ancel
Bud dy</w>
Bh ailt</w>
Al ex
A ig
A E-
19 62</w>
, the</w>
úráin iam-
ún tóir</w>
yp t</w>
www .e
uir easa</w>
u il</w>
transla tor</w>
touris m</w>
tiú s</w>
tim thri
thaispeán far</w>
th achta</w>
te l
t lach</w>
t aighdeoirí</w>
sta laÃ</w>
st an</w>
seach adadh</w>
sc ending</w>
s ter</w>
s eachtain</w>
s ail
ráth aítear</w>
ro ads</w>
renew ed</w>
rap id
po ul
ph oib
os a</w>
or ú</w>
oidh reacht</w>
occurren ce</w>
neamh chomhlíonadh</w>
mí chothromaíochtaí</w>
mil es</w>
m om
laun ch</w>
k es</w>
it ers</w>
idir thréimhse</w>
gu ail</w>
ghabh ála</w>
gh iniúint</w>
gcr itéar</w>
fhabh rach</w>
fer mentation</w>
f oirm</w>
f low</w>
end -
dtre oirlínte</w>
dhaon na</w>
deli vers</w>
dearc adh</w>
dar b</w>
daonlath ach</w>
cúig ear</w>
cú pla</w>
cu tting</w>
con junction</w>
compl ying</w>
comh éifeachta</w>
co- operation</w>
chum tha</w>
chomh fhogasú</w>
chl oig</w>
ch aingean</w>
bi atais</w>
bh onneagar</w>
barri ers</w>
argu ments</w>
archi ves</w>
aith ne</w>
a dhéanamh</w>
_S ain
_ Close</w>
W OR
T am
T V</w>
Stai tisticí</w>
Sprioc dháta</w>
Sho ws</w>
Scáile áin</w>
Scag airí</w>
S K
Ré ime</w>
Per l</w>
P L</w>
O k
O L
Lá mhleabhar</w>
KT T
K E</w>
Ion chó
Implem enting</w>
I F</w>
I EA
Frain cis</w>
For bairt</w>
FINAN CIAL</w>
F lag</w>
Eil v
Earr aidh</w>
EAN NA</w>
E _
Chu staim</w>
C iste-shonracha</w>
C C
Bur ning</w>
B iúró</w>
At tende
Ar row</w>
An al
Al though</w>
A ar
7 7
4. 2</w>
13 16</w>
10 00</w>
. org</w>
éad ain</w>
á b
Ú _s
work shops</w>
un e
truail liú</w>
tri an</w>
thos aigh</w>
thar scaoileadh</w>
tac óidh</w>
su i</w>
st íl</w>
st res
speci ally</w>
sp lit</w>
son róidh</w>
sm us</w>
shuntas ach</w>
sao thr
rial ála</w>
resign s</w>
recogni zed</w>
reac tor</w>
re ácht
rai gí</w>
patter ns</w>
over view</w>
on going</w>
ol óige</w>
ol l</w>
off set</w>
non- discriminatory</w>
neamh shochrach</w>
neamh ionannais</w>
n-áirith eofar</w>
mí lte</w>
meán mhéide</w>
m isin</w>
levi es</w>
len ding</w>
leithdháil tí</w>
inn eal
in nigh</w>
imh neacht</w>
im éadar</w>
il lu
h oifigigh</w>
guil ty</w>
gcuir feadh</w>
fol las
feis tithe</w>
eth nic</w>
employ ee</w>
el a</w>
ear -
dú bailte</w>
dro p</w>
deighil t</w>
d teangacha</w>
d b</w>
d aingniú</w>
cúl chiste</w>
continu ity</w>
consoli dated</w>
connec ting</w>
comm ent</w>
comh pháirtíochtaí</w>
clic king</w>
chu ici</w>
chomh ré
cho inn
cho danna</w>
ch ái
c innidh</w>
breis eáin</w>
bre ithe</w>
bil liún</w>
bh rai
aud iting</w>
ath dháileadh</w>
ar an</w>
ag en</w>
admh áil</w>
accredi ted</w>
W S</w>
URL s</w>
Tao ibh</w>
Succ ess
Ste ph
Simp lithe</w>
SI S</w>
S D
Re size</w>
RIA LACH
RE GU
Pho to
PN M</w>
Ob air</w>
Mar ket</w>
Ma x</w>
M ECS</w>
Lár -
Iodáil is</w>
Gro w
Fil e
En abled</w>
EG TC
Coll ection</w>
Co ver</w>
COMM AND</w>
B un</w>
Arti de</w>
Ar g
A qu
78 h</w>
4. The</w>
3 22</w>
24 4</w>
, 000</w>
â ir</w>
Ú dair</w>
weigh ting</w>
w in</w>
tren d</w>
tiú is</w>
thir im</w>
th agra
teir min
tSlóiv éin</w>
sul ar</w>
ss ing</w>
socio- economic</w>
sever e</w>
rúnd acht</w>
rá laí</w>
ri m</w>
re payment</w>
por ary</w>
pop u
pn g</w>
own er</w>
origin ally</w>
onnmhair ithe</w>
ol lmh
oc sa
no thing</w>
neamhchla on</w>
n omenclature</w>
mó tar
municip alities</w>
mod al</w>
mion lach</w>
mh eá
mb éal</w>
ló id</w>
li ers</w>
la íodh</w>
la íoch</w>
justi fy</w>
inn scrúdú</w>
in rochtain
in j
hion straime</w>
h ouse</w>
h arm
gi ble</w>
ghluais eachta</w>
gh al
gcu ma</w>
gc ion
g ru
for fheidhmiú</w>
fhrith pháirteach</w>
fhor ghníomhú</w>
fhi osrúcháin</w>
fheabh saithe</w>
f ín
experi ences</w>
ex tr
en th</w>
ecosy stem</w>
dtos ach</w>
dtaisp eán
de show</w>
de ems</w>
daon n
d únadh</w>
d trí</w>
cú ramach</w>
consider able</w>
con stant</w>
comh chos
co ireachta</w>
clai ms</w>
cla sses</w>
chó naí</w>
ch athair</w>
cair diúil</w>
c eal</w>
c ad
bun úsaí</w>
bo uring</w>
bl ack</w>
bhun aigh</w>
bhain tear</w>
bh irt</w>
b áid</w>
ao s</w>
an na
al is</w>
acc eler
a warded</w>
_ w</w>
X V</w>
X III</w>
U pload</w>
Trans lation</w>
Termin al</w>
TF C</w>
Strate gic</w>
Spec ify</w>
Shar ed</w>
SL ÁND
SECUR ITY</w>
REITH IÚ
Pow er
Modh anna</w>
Min u
M el
LU ITE</w>
LI AN
K no
K 3b</w>
Ions Ã</w>
In du
Gla _n</w>
G in
Era smus</w>
Eat ra
Chris tian</w>
Chomh phob
COMHDH LUITE</w>
C au
B lock</w>
Ath dh
Airteu gul</w>
ACH TA</w>
3 11</w>
24 .
19 50</w>
éil e
ÓIR Í</w>
Å land</w>
z ing</w>
viet nam</w>
v í
un employed</w>
ul aing
uain each</w>
u t
táil lí</w>
tre oir
top s</w>
thi ar</w>
tarraing the</w>
t- údarú</w>
t óireacht</w>
t arr
sur face</w>
spe ech</w>
som etimes</w>
sen der</w>
sc artha</w>
s ens
rus sia_</w>
pass words</w>
pack ages</w>
ol ach</w>
nd lí</w>
n- iomláine</w>
mb eartú</w>
mach in
lú ite</w>
lo dging</w>
l org
k o</w>
ist ent</w>
isot opes</w>
investig ate</w>
in ski</w>
impeal lacht</w>
im bab
ic an</w>
i or
health care</w>
h iomláine</w>
h au
gu ais
gh eilleagair</w>
gco imeád
gc naipe</w>
fa ts</w>
f eoil</w>
e dia</w>
dhíosp óid</w>
detec t</w>
defini tive</w>
cú raim</w>
cro í
crit er
coun t</w>
comh roinnte</w>
collabor ation</w>
co insi
bhr iseadh</w>
bh i</w>
bh Feisirí</w>
b b
b arr
at Ã</w>
arri ve</w>
ardo ideachais</w>
approv es</w>
ap an</w>
aon tacht</w>
ais ghabháil</w>
aic í</w>
ai i</w>
ab ov
_T eagmh
X T</w>
Tr i</w>
Scáile án</w>
S chum
Rapóir téirí</w>
RES ENTA
Pri onsab
Pr ío
Ph ri
Ou r</w>
Offic ials</w>
Nu a
Meán mhara</w>
L aid
Joh ann
Inter governmental</w>
Inde x</w>
Hea vy</w>
Gu idance</w>
GHLA CADH</w>
FI LE</w>
F illteÃ</w>
E abhrach</w>
E FF</w>
E E
Du bh</w>
Do cum
Def ence</w>
Dani el</w>
D TD</w>
Ch ang
CP U</w>
C MS</w>
B i
27 1</w>
24 5</w>
20 23</w>
ëan amh</w>
án ú</w>
ÍSI LTÍRE</w>
y l</w>
world wide</w>
téam aí</w>
thiom sú</w>
th ec
ta bs</w>
sy ru
statu sbar</w>
sp óir
sp h
soc raíodh</w>
scrí be</w>
ré ad</w>
relig ious</w>
re lea
radio active</w>
rach far</w>
pr óifíl</w>
phoib liú</w>
pea t</w>
pac áiste</w>
p rud
p references</w>
non- discrimination</w>
no s</w>
n eamh</w>
mí le</w>
multi lingu
mi -
isi ü
isi ûn</w>
invol ves</w>
inn eacha</w>
inmh ianaithe</w>
iarmh airt</w>
i or</w>
hol ds</w>
glas s</w>
gh lu
fu idh</w>
fre ight</w>
forth with</w>
fh ada</w>
f em
eisc eacht</w>
einti tis</w>
ed ded</w>
dl inse</w>
difficul ty</w>
diff eren
deal s</w>
de och
coibhé iseach</w>
co oper
ci le</w>
c éad
bug ger</w>
bhun aidh</w>
bhf oirm
ar n
aith i</w>
ail -
ac ity</w>
abul ary</w>
_ Move</w>
Viet nam
V ic
T ÍOR
T op
Symb ol</w>
Slóiv éine</w>
Slá ndáil</w>
S os</w>
S o</w>
S leamhnán</w>
S P</w>
Resul t</w>
R F
Prin ci
Oper ations</w>
Nol lag</w>
N a
Moun t</w>
Mc K
M ur
M alar
Ionad aíochta</w>
Iomp ar</w>
Ini tial</w>
Ghra onlainn</w>
Gh rúpa</w>
G Y</w>
G ES</w>
E quality</w>
E CE</w>
D ó</w>
Compl aints</w>
Ch air
Brea k</w>
Bh ain
Ainmn íocht</w>
AN N</w>
9 6
8 5
4 50</w>
3 76</w>
23 9</w>
19 56</w>
è ad</w>
z e
twel f
trea t</w>
to- do</w>
tharaif e</w>
th at
teor a</w>
tac agraif</w>
su ms</w>
st y
sho t</w>
sh ábháilteacht</w>
sam pl
romh ainn</w>
ren der</w>
rec ti
rapid ly</w>
ramh phost</w>
preser ved</w>
pp ed</w>
pos ure</w>
play ers</w>
ol ds</w>
neigh bouring</w>
nd ea
navi gation</w>
n eacha</w>
mhacht ana</w>
mh eáin</w>
marke ted</w>
manufacture rs</w>
le án</w>
jud ge</w>
ism itheoirí</w>
inter val</w>
infh aigh
imp lied</w>
i allach</w>
h éifeachtúil</w>
h em
gi a</w>
ghear ánaigh</w>
gh in
gener ate</w>
g rid</w>
g orm</w>
form ulate</w>
forc ing</w>
for d</w>
fo ghlama</w>
fin ding</w>
fhost ú</w>
fh is
esubl ishing</w>
er a</w>
em plo
dé imeagra
dt omhaltóirí</w>
discre tion</w>
dg es</w>
design ating</w>
de -
cost áis</w>
corri d
continu ing</w>
concre te</w>
communau taire</w>
chos tas</w>
chor raithe</w>
cho is</w>
ch ói
cau ght</w>
carri age</w>
c ártaí</w>
bp ic
bh formáid</w>
bh aill</w>
beli eve</w>
b us</w>
b plean</w>
avo iding</w>
at er
ar bitration</w>
anno unc
ai str
abov ementioned</w>
abh airt</w>
_ Show</w>
_ Name</w>
W ITH
Vietnam ese</w>
V ES</w>
Un titled</w>
Toirm iscfear</w>
Tei mpléad</w>
T un
Soc róidh</w>
Sean -
S ir</w>
Roghn úchán</w>
REP RESENTA
R únaí</w>
Pro vi
Pro jects</w>
Perman ent</w>
Perio ds</w>
P on
P a
OS T</w>
Nu mb
M ór
M iscellaneous</w>
Low er</w>
Lati n</w>
K Office</w>
H a
GHT S</w>
F li
F an</w>
Eorp ach
Eoch racha</w>
EM FF</w>
D- Bus</w>
Cru inniú</w>
Con nect</w>
Commission er</w>
Comh ad
Coim isin
Ca tal
C Ó
B ec
B _
Athchóir igh</w>
Aisghair the</w>
Ac cept</w>
A TH
24 6</w>
0 s</w>
úr fhíon</w>
óifí lí</w>
íoc far</w>
www. go
wri table</w>
vari ety</w>
ur acy</w>
tras- Eorpach</w>
traid isiúin</w>
tobh aigh</w>
theacht aireacht</w>
te lec
ta p
tS aoráid</w>
t- athbhreithniú</w>
t éi
sh aghas</w>
separ ated</w>
satis fied</w>
remo val</w>
raith eanna</w>
rach as</w>
ra tions</w>
r è
pursu it</w>
plé ití</w>
perm its</w>
oibr í</w>
min e</w>
mh aoirseacht</w>
mbn ail</w>
mb ogadh</w>
mars áid</w>
liqu id</w>
lev y</w>
lea ving</w>
las raí</w>
laith eas
k u
iseat óipí</w>
ion chódú</w>
interven tions</w>
initi ate</w>
ing -
in di
ide oidh</w>
h íoc</w>
h iascaireachta</w>
gradu al</w>
gh eofar</w>
g lu
for leathan</w>
fo li
fion tra
fho -
es ystem</w>
eoch air
ens ity</w>
eil t</w>
eacht ana</w>
dep th</w>
de isce</w>
d ean
cru cial</w>
correc tions</w>
comm it</w>
chu aigh</w>
chomh pháirt</w>
chomh aontaithe</w>
ch lo
cast ing</w>
c iste</w>
bhfaigh fear</w>
becom ing</w>
ath scrúdú</w>
as sign
ar i</w>
aont óidh</w>
an nach</w>
acht aithe</w>
acc uracy</w>
_S cr
V il
TAC s</w>
TA KING</w>
Sp elling</w>
R ural</w>
Qu estion</w>
PRO CE
P ine</w>
Or d</w>
N úic
N Á
Mo del</w>
Mea mraim</w>
Me dium</w>
McK instry</w>
M any</w>
L éiríonn</w>
L ái
L org
L ong</w>
Integra ted</w>
Idir institiúideach</w>
Fur ther</w>
F av
Ex it</w>
ES T
EA L
Dig ital</w>
C órais</w>
C naipe</w>
C inn</w>
Breis eÃ</w>
At tach</w>
Ala stair</w>
Ad min</w>
Ac ting</w>
A part</w>
A 4</w>
50 9</w>
10 4
1. 1</w>
w ealth</w>
ver se</w>
v i</w>
téar a</w>
tub aiste</w>
tionsc anta</w>
th ófar</w>
th ach</w>
tal ly</w>
tSlóv aic</w>
suite álacha</w>
sub scription</w>
st á
st air
sh in
se án</w>
sc ortha</w>
s ach</w>
réamhdhré acht</w>
rth é
roghn úchán</w>
roghn aíonn</w>
replac ing</w>
reo faí</w>
ren dered</w>
reacht aigh</w>
proce eding</w>
ph en
oll scoileanna</w>
mí bhuntáistí</w>
mhí -úsáid</w>
malar tuithe</w>
machin ery</w>
m ck
mck instry</w>
li kewise</w>
la c</w>
it s
io c</w>
int Ã</w>
i i
h East
gi orra</w>
gh leac
gc ruth
gC eannairí</w>
g ave</w>
g ain</w>
fhost óir</w>
fh ás</w>
fe es</w>
fe ed
ex changed</w>
eoch an</w>
ens ory</w>
electr icity</w>
eis igh</w>
droch riaracháin</w>
dhéan tús</w>
dheon aigh</w>
dec imal</w>
d teanga</w>
d f</w>
creid iúnaithe</w>
con air</w>
coig eartú</w>
chomhchuibh eas</w>
ch Ã</w>
ch aidrimh</w>
ch adh</w>
breith niú</w>
bh o
bh ac</w>
beli ef</w>
asse ssed</w>
asc namh</w>
ar ques</w>
appl et</w>
ao il</w>
analy ses</w>
ambi a_</w>
alcó l</w>
ain se</w>
ail and</w>
ag e-
a h</w>
Wr iting</w>
Wai ting</w>
Vis ual</w>
V CD</w>
Th oir</w>
TI VES</w>
T íolacfaidh</w>
Su ífidh</w>
Sh ort</w>
RI GHTS</w>
R ÍO
PRO DU
PAR TI
N ord
M ú
M ean
L EN
KSp read</w>
KDE Name</w>
KDE 4</w>
In stal
IC T</w>
Heilléan ach</w>
Fo od</w>
En ter
East óin</w>
EG F</w>
E mb
De bug</w>
D ío
D on
Chomh ad</w>
CA I</w>
C amera</w>
Bul g
Arti st</w>
Amar ok</w>
Ad just
AON TAITHE</w>
A LI
8 9
8 4.
3 14</w>
12 91</w>
ó ire</w>
áirí the</w>
w ard
u il
tu í</w>
thei deal</w>
th reoir</w>
telec ommun
surve y</w>
sta ting</w>
sp órt</w>
siú la</w>
simpli fied</w>
silt ír</w>
seirbhis igh</w>
se z
sc óip</w>
s roich
roghn ófar</w>
re side</w>
pro jec
po st-
plac ement</w>
os ing</w>
nam ic</w>
n- inniúlachtaí</w>
meá chain</w>
m ainn</w>
log áil</w>
leithrea sai</w>
leithdháil fear</w>
l z
l ess
k y</w>
jun k</w>
iz er</w>
it ly</w>
irtea cha</w>
ic ín</w>
i um-
hea sp
h un
h oibríochta</w>
h i
gcaith fear</w>
fu sa</w>
fu ar
fo stering</w>
fo -
fir m</w>
fi b
fi an
fh illeadh</w>
f ine</w>
exp ect</w>
exc el
eag rai
dífh ostaithe</w>
de part</w>
darsn acht</w>
criter ion</w>
cri p
conven e</w>
comh artha</w>
cl ock</w>
cion roinnt</w>
ci a</w>
ch luiche</w>
ch aibid
cer tain
ceann teidil</w>
bo gadh</w>
bhlé idi</w>
authentic ity</w>
au th
ar bit
an ks</w>
an as</w>
a way</w>
_T óg</w>
_Scr íos</w>
_ Stádais</w>
_ Aimsigh</w>
Ye sterday</w>
TA CH
T íortha</w>
Se par
Scrío bh</w>
SA OR
S ing
Ré al
Prin ting</w>
Or der</w>
Oiriú nuithe</w>
Oib rithe</w>
O I</w>
Nat ural</w>
Mer ge</w>
M ER
K er
In crease</w>
Implem entation</w>
G réige</w>
G réagach</w>
D ru
Corri gendum</w>
Contin ue</w>
Cap ital</w>
CHU R</w>
Back end</w>
At tribu
Arab ach</w>
Aith níonn</w>
AN NU
AC CE
A E
27 7</w>
26 9</w>
200 7
10 82</w>
ú ra</w>
í Name</w>
www.go og
www.goog le.
vers ation</w>
uas ghrádú</w>
trédhearc achta</w>
tiom antas</w>
ti ubh
third- country</w>
th ink</w>
teagh rán</w>
tas acha</w>
tac kle</w>
syste ma
stu am
struchtú rach</w>
sta ll
shon róidh</w>
se omra</w>
scri osta</w>
sc áin</w>
rol led</w>
reas acha</w>
reab fhuinneog</w>
ran ch</w>
rail way</w>
prío bh
prov ed</w>
poin ted</w>
pló maí</w>
p g</w>
oun ds</w>
os es</w>
or um</w>
ol aithe</w>
off ered</w>
n- úsáidfear</w>
n- urramóidh</w>
mob il
mharg aíochta</w>
mh éideanna</w>
mh eabh
manu ally</w>
mal a</w>
m es
lu ch</w>
leor mhaith</w>
k on
j ab
isc ard</w>
ic íocht</w>
h áiríthe</w>
h oibre</w>
go bharnóirí</w>
ghlan adh</w>
gcoibh neas</w>
fóirdheon tais</w>
fó namh</w>
fil ters</w>
fhor líon
fhor fheidhmiú</w>
feirm eoir</w>
f et
eisc eachtaí</w>
du bh</w>
dh eac
develop ers</w>
de grees</w>
d teachtaireacht</w>
contin ues</w>
coig eartaithe</w>
cobh saí</w>
chuid íonn</w>
chruth aíonn</w>
chrea ta</w>
choip eadh</w>
cheap far</w>
cheap faidh</w>
c iúb
bun achar</w>
bru scar</w>
breath nú</w>
bo tt
bhfaigh eann</w>
b ain</w>
at ories</w>
asc al</w>
ar g
an tag
allmhair iúcháin</w>
air m</w>
ainmn iúcháin</w>
ack er</w>
Up dating</w>
Táirg í</w>
Tr y</w>
Thom as</w>
TE N-
TEN- T</w>
Sc ag</w>
SV CD</w>
SHA -
Res ources</w>
Ran dom</w>
RG ACHT</w>
RE N
Pier re</w>
P áipéar</w>
P oiblí</w>
Nor we
M an</w>
Lár- Eorpach</w>
L ár</w>
K IC
Iompór tála</w>
I E</w>
Foir eann</w>
F Ã</w>
F lag
EN T
EACNAMA ÍOCH</w>
Dlúth dhiosca</w>
Cé im
Crip tigh</w>
Compl ete</w>
Comh oibreoidh</w>
Co l</w>
CE MI</w>
B ánaigh</w>
Al bert</w>
Air mheán</w>
Aibh sigh</w>
AC ON
A DA
2 -</w>
02 u</w>
éiceach óras</w>
windo ws-12
ví reasacha</w>
vie wing</w>
ur ghnách</w>
uir le</w>
to sca</w>
thi op
th achtaí</w>
termin ated</w>
tal on
talon ia_</w>
ta pe</w>
sub scribe</w>
stuam achta</w>
stric t</w>
stiú ir</w>
solem n</w>
sh rianadh</w>
second ary</w>
se ed</w>
s-p D</w>
s rian
réamh rialú</w>
replac es</w>
rea mble</w>
re- elected</w>
rang ú</w>
r ors</w>
prov id
preven tive</w>
plat form</w>
p al
out comes</w>
one sia</w>
on ent</w>
[...]
